<pad>	0
<unk>	0
<s>	0
</s>	0
▁the	-3.57252
▁of	-4.16898
▁و	-4.19897
▁در	-4.34509
▁and	-4.39223
▁به	-4.42495
▁to	-4.49622
▁می	-4.61583
ی	-4.66703
▁که	-4.67604
▁را	-4.69112
▁از	-4.71231
▁in	-4.75615
s	-4.77456
▁a	-4.89736
▁است	-5.12005
▁	-5.14048
▁با	-5.24692
▁این	-5.36081
▁آن	-5.42342
▁you	-5.44812
▁that	-5.45141
▁i	-5.45332
▁is	-5.46587
▁ها	-5.49402
▁های	-5.52081
▁for	-5.55583
▁او	-5.55753
▁it	-5.57046
▁برای	-5.5718
ه	-5.57845
▁من	-5.79688
▁on	-5.80815
▁یک	-5.81563
ing	-5.84753
٫	-5.85076
▁1	-5.8532
▁he	-5.87195
▁with	-5.87402
ed	-5.89077
▁s	-5.90983
▁was	-5.93261
▁be	-5.95455
▁کرد	-5.99043
▁بود	-6.04656
▁خود	-6.07456
▁are	-6.10902
▁as	-6.13312
▁not	-6.15088
▁ما	-6.17394
▁this	-6.19317
▁شما	-6.19952
▁کند	-6.22702
▁شده	-6.22706
▁تا	-6.28004
▁his	-6.28444
▁we	-6.29892
▁2	-6.31014
م	-6.32215
▁at	-6.33229
▁by	-6.34252
▁have	-6.34957
▁شد	-6.36278
▁will	-6.36466
▁12	-6.38638
▁all	-6.38893
▁شود	-6.42502
▁from	-6.43833
▁3	-6.45101
▁but	-6.46628
▁ای	-6.48663
▁بر	-6.52212
▁اما	-6.5368
▁they	-6.55002
▁your	-6.58993
ش	-6.59209
▁تلفن	-6.60348
▁10	-6.62196
▁نمی	-6.63098
ly	-6.63351
▁my	-6.63534
▁هر	-6.66242
▁phone	-6.6767
▁5	-6.68306
▁4	-6.70238
▁9	-6.71641
▁she	-6.7271
▁her	-6.7365
▁2016	-6.75394
ت	-6.76044
▁or	-6.76538
▁8	-6.76839
▁had	-6.77369
▁یا	-6.78
ا	-6.78061
▁0	-6.78376
▁همه	-6.80031
▁11	-6.80564
▁کار	-6.80615
▁٪	-6.80895
▁me	-6.81012
ین	-6.81659
d	-6.82036
▁an	-6.82454
▁him	-6.8338
ان	-6.85192
▁باید	-6.85413
▁t	-6.86001
▁6	-6.86874
▁مورد	-6.8751
▁کنید	-6.87903
▁one	-6.89283
▁can	-6.89609
▁which	-6.90161
▁سال	-6.90307
▁تو	-6.90833
▁so	-6.91628
e	-6.93511
▁has	-6.93593
▁when	-6.93768
▁no	-6.9457
▁their	-6.9488
▁7	-6.94968
▁were	-6.95822
▁what	-6.95928
▁there	-6.96243
▁حال	-6.971
▁گفت	-6.97441
▁out	-6.98422
▁کنند	-7.0128
▁کنم	-7.01462
y	-7.0193
▁do	-7.02281
▁our	-7.02454
▁am	-7.02896
▁who	-7.03138
▁them	-7.04354
▁if	-7.04571
▁said	-7.04663
▁دارد	-7.06423
▁up	-7.07028
▁20	-7.08132
▁time	-7.1127
▁اگر	-7.13267
▁پس	-7.14501
▁خواهد	-7.16104
▁اینکه	-7.17126
▁داد	-7.18088
▁about	-7.18134
▁15	-7.20135
▁انجام	-7.20272
▁new	-7.21027
▁16	-7.21267
▁19	-7.22532
▁more	-7.22892
▁after	-7.25316
er	-7.25597
▁بین	-7.27159
▁13	-7.27505
n	-7.27637
al	-7.28086
▁may	-7.28142
▁14	-7.30056
▁دهد	-7.30162
▁وجود	-7.30657
▁م	-7.30711
▁روی	-7.31653
▁دو	-7.31762
د	-7.32246
▁نه	-7.32929
▁کرده	-7.33011
▁باشد	-7.34677
▁نظر	-7.34993
▁دست	-7.35512
▁هم	-7.36744
▁08	-7.36818
▁been	-7.36903
ند	-7.37013
▁روز	-7.37482
▁تمام	-7.38186
▁2009	-7.38422
▁18	-7.38686
▁its	-7.38966
▁30	-7.40179
▁هستند	-7.40661
▁بعد	-7.40866
▁17	-7.40914
▁چه	-7.41155
▁21	-7.42562
▁like	-7.42762
▁would	-7.43133
▁قرار	-7.43325
▁طور	-7.43406
▁here	-7.43476
▁ساعت	-7.43749
▁people	-7.45061
▁قزاقستان	-7.45606
▁زیرا	-7.46529
▁کنیم	-7.46641
▁also	-7.47062
▁into	-7.47456
▁48	-7.47699
▁even	-7.48808
▁کردند	-7.49053
ن	-7.51432
▁اینجا	-7.51506
▁2015	-7.51982
▁shall	-7.52014
▁other	-7.52068
▁نیست	-7.52325
▁فقط	-7.52599
▁25	-7.52759
▁us	-7.53232
▁know	-7.53372
▁شرکت	-7.53922
es	-7.5401
▁01	-7.54053
▁هیچ	-7.5441
▁now	-7.54652
▁only	-7.55377
▁پیش	-7.55586
▁زندگی	-7.56051
▁just	-7.56211
▁منطقه	-7.564
▁22	-7.56435
▁god	-7.56592
▁06	-7.56905
▁00	-7.57023
▁09	-7.57042
▁over	-7.57332
▁دیگر	-7.57465
▁05	-7.57948
▁07	-7.58488
▁go	-7.58591
▁kazakhstan	-7.5927
a	-7.59475
▁بی	-7.59501
▁زمان	-7.59951
▁23	-7.59958
▁day	-7.61131
▁فکر	-7.6139
▁چیزی	-7.61708
▁2017	-7.62136
t	-7.62903
▁ظ	-7.6317
▁همچن	-7.63234
ات	-7.63589
▁استفاده	-7.64217
▁داشت	-7.64869
▁than	-7.65251
▁well	-7.6526
▁عنوان	-7.65304
▁m	-7.66261
▁03	-7.66405
▁02	-7.66479
▁راه	-7.66734
▁then	-7.66735
▁04	-7.67038
▁ق	-7.67488
▁رئیس	-7.68327
▁وقتی	-7.68351
▁توسط	-7.69182
▁these	-7.70075
▁how	-7.70198
▁see	-7.7025
▁first	-7.70425
▁بسیار	-7.70596
▁24	-7.72854
▁any	-7.73053
▁man	-7.7319
▁work	-7.73486
▁get	-7.73602
▁جدید	-7.73669
▁come	-7.73725
▁before	-7.74309
▁2014	-7.74943
▁re	-7.75179
و	-7.75692
▁تصمیم	-7.7625
های	-7.76284
▁2010	-7.76472
▁آیا	-7.76488
▁برنامه	-7.76958
r	-7.77243
▁داده	-7.77782
▁world	-7.77907
▁روسیه	-7.7846
▁mobile	-7.79264
▁27	-7.79517
▁did	-7.79528
▁اند	-7.80219
▁take	-7.8037
▁بیشتر	-7.80554
▁pm	-7.81365
▁some	-7.81927
▁بزرگ	-7.81963
▁همان	-7.82178
ک	-7.8238
▁26	-7.82745
▁could	-7.8314
▁وارد	-7.83149
▁city	-7.83169
▁ارائه	-7.83389
▁two	-7.83393
▁2011	-7.83974
▁where	-7.84018
▁خانه	-7.84755
▁گرفت	-7.85444
ها	-7.85723
▁کشور	-7.85737
یم	-7.85994
▁موبایل	-7.86103
ب	-7.86224
▁ایجاد	-7.86396
▁توسعه	-7.86455
▁پروژه	-7.86572
▁خوب	-7.86992
▁make	-7.87123
▁کردم	-7.87207
▁سر	-7.87442
▁should	-7.88486
▁هستید	-7.88792
▁بودند	-7.8894
▁life	-7.89864
▁2013	-7.89866
▁داشته	-7.90163
▁بدون	-7.90179
▁very	-7.90239
چه	-7.90467
▁رو	-7.90674
▁یکی	-7.90862
ر	-7.90869
▁سه	-7.91099
ز	-7.91496
▁بار	-7.91925
▁تر	-7.92128
▁اتاق	-7.92384
▁کمک	-7.92478
▁such	-7.92697
▁خداوند	-7.93134
▁state	-7.93204
▁شوند	-7.93585
▁چیز	-7.93756
▁نیز	-7.94153
▁نشان	-7.9438
ید	-7.94488
▁28	-7.94549
▁way	-7.94942
▁back	-7.95124
▁جمهوری	-7.95314
▁good	-7.95461
▁آب	-7.95974
ل	-7.96822
▁حاضر	-7.97301
ع	-7.97396
▁قبل	-7.97484
▁شهر	-7.97494
▁مردم	-7.97934
▁lord	-7.99018
▁ممکن	-7.99085
▁because	-7.99152
▁let	-7.99333
▁نام	-7.99727
▁year	-7.99732
▁2012	-8.00392
▁ام	-8.00428
▁تنها	-8.01308
▁down	-8.01401
▁made	-8.01526
▁right	-8.02012
▁چند	-8.02046
▁50	-8.02191
▁ارسال	-8.03027
▁تواند	-8.03507
▁29	-8.03647
▁توجه	-8.03735
▁خدا	-8.04067
س	-8.0423
▁مانند	-8.04294
▁years	-8.04454
▁those	-8.05129
o	-8.05184
▁کردن	-8.05217
▁project	-8.05584
▁though	-8.05983
▁خیلی	-8.06002
▁ب	-8.06361
▁31	-8.06505
▁زمین	-8.06627
▁کن	-8.07319
▁development	-8.0735
▁زمانی	-8.0908
in	-8.09125
▁most	-8.09227
▁must	-8.09262
▁against	-8.0949
▁every	-8.095
▁صورت	-8.09692
▁place	-8.10712
▁شروع	-8.10959
re	-8.11192
▁بنابراین	-8.1141
▁دولت	-8.11845
▁un	-8.11992
▁republic	-8.12064
▁under	-8.12099
▁حتی	-8.12246
c	-8.12549
▁head	-8.12849
▁through	-8.13157
▁کسی	-8.13167
▁de	-8.1339
▁بیش	-8.13448
▁خواهم	-8.13627
▁president	-8.13698
▁شوید	-8.14099
▁many	-8.14298
▁نگاه	-8.14481
▁during	-8.14485
▁don	-8.14797
▁نیاز	-8.14907
▁great	-8.15741
▁region	-8.15759
▁say	-8.15763
▁سازمان	-8.15827
ic	-8.16522
▁تلاش	-8.17234
▁صحبت	-8.1731
انه	-8.17544
▁شنبه	-8.17712
▁need	-8.17719
▁باز	-8.17798
▁کل	-8.18237
▁ت	-8.18459
ف	-8.18595
▁between	-8.18598
▁think	-8.18734
▁سخت	-8.19275
▁40	-8.19923
▁چنین	-8.19985
▁international	-8.20149
▁بالا	-8.20399
en	-8.20449
▁هایی	-8.20999
▁while	-8.21226
▁دلیل	-8.21397
▁زیر	-8.21445
▁decided	-8.21582
g	-8.21905
▁همیشه	-8.22143
▁اول	-8.22307
▁ارمنستان	-8.22311
▁own	-8.22467
▁came	-8.22794
▁last	-8.22854
▁foreign	-8.22958
▁want	-8.23266
گی	-8.23275
▁long	-8.23426
▁ساخت	-8.23565
▁country	-8.2358
▁russian	-8.23742
▁افزایش	-8.24007
ور	-8.24012
ers	-8.24056
▁جهان	-8.24204
▁دوست	-8.24495
▁بیرون	-8.25739
▁خواهند	-8.26171
ون	-8.26549
▁درصد	-8.26691
▁غیر	-8.27376
st	-8.27407
▁توان	-8.27673
▁same	-8.27676
▁part	-8.2787
▁put	-8.27889
▁المللی	-8.28169
p	-8.28429
▁دارند	-8.28675
▁قانون	-8.28699
▁مرد	-8.28795
▁being	-8.29346
▁without	-8.29485
▁house	-8.29677
▁give	-8.3021
▁نفر	-8.30287
▁high	-8.30907
▁دیگری	-8.31203
▁اکنون	-8.31553
▁help	-8.3167
▁تغییر	-8.32059
▁سرمایه	-8.32294
▁national	-8.32767
▁use	-8.33198
▁meeting	-8.33316
▁d	-8.33854
▁again	-8.33859
▁اصلی	-8.33968
▁احساس	-8.34026
▁currently	-8.34405
▁اش	-8.34459
▁hand	-8.34465
▁شب	-8.34653
▁number	-8.34779
▁پسر	-8.3484
▁why	-8.35024
▁سپس	-8.35024
▁وزیر	-8.35135
▁much	-8.35312
▁off	-8.35442
ion	-8.35613
▁اساس	-8.35721
▁ع	-8.35722
▁room	-8.35874
▁شرایط	-8.35983
▁children	-8.35997
▁پایان	-8.36137
▁love	-8.36244
▁اطلاعات	-8.36323
▁تولید	-8.36369
▁شدن	-8.36394
▁ترین	-8.36436
▁توانید	-8.36713
تر	-8.36793
▁russia	-8.36973
▁عمل	-8.37025
▁دهید	-8.3707
▁انتخاب	-8.37099
▁law	-8.37238
▁پیدا	-8.37251
▁امروز	-8.3726
▁ملی	-8.37443
▁still	-8.37638
▁دارم	-8.37708
1396	-8.3779
▁کنی	-8.37862
▁پاسخ	-8.37931
▁بازدید	-8.38354
▁گزارش	-8.38422
▁دور	-8.3854
▁little	-8.3862
▁never	-8.38821
i	-8.38882
ation	-8.39495
▁دوباره	-8.39515
▁خاطر	-8.3958
▁رفت	-8.39668
▁ظهر	-8.39715
▁ماه	-8.39754
▁هستم	-8.39861
▁رسید	-8.40002
▁things	-8.40106
▁صبح	-8.40188
or	-8.40237
▁جمهور	-8.40384
▁minister	-8.40404
▁دهند	-8.40655
▁بخش	-8.40809
▁find	-8.40836
▁old	-8.40955
▁حالی	-8.41147
▁going	-8.41176
▁اروپا	-8.41213
▁ادامه	-8.41329
▁upon	-8.41397
▁information	-8.41433
▁عیسی	-8.41736
▁چون	-8.41804
▁water	-8.41886
▁jesus	-8.4194
▁تاریخ	-8.42617
▁زیادی	-8.4276
▁خدمات	-8.43383
▁according	-8.43679
▁بازی	-8.43736
▁father	-8.43814
b	-8.44001
▁پر	-8.44074
▁دنبال	-8.44217
▁کاهش	-8.44853
▁گروه	-8.44996
▁آنجا	-8.45054
▁چرا	-8.45459
▁service	-8.45709
ia	-8.45829
▁end	-8.45984
▁هدف	-8.46014
▁شدند	-8.46271
f	-8.46385
▁سیستم	-8.46447
▁1395	-8.46461
▁هنوز	-8.46653
▁men	-8.46926
▁حمایت	-8.46976
▁دریافت	-8.47192
▁کننده	-8.47278
▁33	-8.47298
▁son	-8.47412
▁چگونه	-8.47633
▁best	-8.4786
▁2008	-8.47871
▁قابل	-8.48045
▁آستانه	-8.48275
▁away	-8.4856
▁order	-8.48797
▁log	-8.48972
ity	-8.49035
▁اولین	-8.49237
▁درست	-8.4945
th	-8.49805
▁سمت	-8.49834
▁too	-8.50119
▁کامل	-8.50202
▁برگزار	-8.50214
▁متر	-8.50235
▁days	-8.50377
▁افراد	-8.50702
▁مرکز	-8.50775
▁32	-8.50966
▁همکاری	-8.5114
▁three	-8.51712
▁گرفته	-8.5188
▁ll	-8.51903
▁طول	-8.51929
▁هرگز	-8.52402
▁went	-8.52488
▁موضوع	-8.52723
▁look	-8.52832
▁each	-8.53077
▁کنار	-8.5315
▁نور	-8.53215
▁41	-8.53334
▁امور	-8.53694
توجه	-8.53986
▁got	-8.53994
ri	-8.54318
▁واقعا	-8.54323
▁آمد	-8.54353
▁another	-8.54457
▁unto	-8.54474
▁keep	-8.54585
able	-8.54714
ق	-8.54784
▁35	-8.55262
▁طریق	-8.55272
▁نتیجه	-8.55272
▁نزدیک	-8.55332
▁کاملا	-8.55357
▁human	-8.5537
▁زبان	-8.55507
▁ویژه	-8.55512
▁وزارت	-8.55741
▁countries	-8.55858
▁کاری	-8.56668
k	-8.56774
▁مهم	-8.56789
▁both	-8.56828
▁astana	-8.57279
▁همین	-8.57546
▁بلکه	-8.57638
▁government	-8.5771
▁al	-8.57759
▁name	-8.57792
▁always	-8.57877
▁هزینه	-8.57877
▁ن	-8.58017
▁برخی	-8.58067
▁جهانی	-8.58081
▁قیمت	-8.58117
▁قدرت	-8.58253
l	-8.58868
li	-8.58962
▁face	-8.5913
▁حل	-8.59234
▁جنگ	-8.59454
▁free	-8.5972
▁نشست	-8.59881
▁آموزش	-8.60013
▁عمومی	-8.60015
▁land	-8.60178
▁آینده	-8.60376
▁armenia	-8.60446
▁حقوق	-8.60482
▁یاد	-8.61145
▁51	-8.61327
▁34	-8.61544
▁مدت	-8.61572
le	-8.61597
▁آماده	-8.6209
▁since	-8.62141
▁کوچک	-8.62212
▁views	-8.62351
▁گذاری	-8.62432
▁هتل	-8.62543
▁اندازه	-8.62801
on	-8.62833
▁system	-8.63235
▁business	-8.63238
▁ندارد	-8.63427
▁economic	-8.63554
▁برابر	-8.63681
▁باشید	-8.63835
▁گذشته	-8.63892
▁took	-8.64057
▁w	-8.64201
▁خواهید	-8.64216
▁یافت	-8.64353
▁ministry	-8.64447
▁e	-8.6452
▁home	-8.64704
z	-8.64707
▁light	-8.64773
▁public	-8.64809
▁set	-8.6488
▁does	-8.64881
▁power	-8.65179
▁found	-8.65196
▁مختلف	-8.65349
▁خوبی	-8.65413
▁tell	-8.65582
▁هزار	-8.65607
ness	-8.65724
▁هنگام	-8.65737
▁زد	-8.65747
▁دولتی	-8.6583
▁وضعیت	-8.65867
▁today	-8.6592
▁around	-8.66126
▁اجازه	-8.66126
▁party	-8.66128
▁کمی	-8.66162
▁بسیاری	-8.66202
▁موجود	-8.66862
▁بررسی	-8.6694
▁فعالیت	-8.67313
▁36	-8.6748
▁per	-8.67485
ve	-8.67517
▁مثل	-8.67586
▁war	-8.67598
▁اقتصادی	-8.68002
ال	-8.68456
▁45	-8.6876
▁hard	-8.68795
▁روح	-8.69058
▁تبدیل	-8.69303
▁تعداد	-8.69314
ده	-8.69442
est	-8.69847
▁بهترین	-8.69905
▁د	-8.70146
▁دلار	-8.70152
▁heart	-8.70204
▁میان	-8.70314
▁company	-8.70521
an	-8.70971
▁something	-8.71067
▁واقع	-8.71096
▁49	-8.71101
ایی	-8.71266
u	-8.71282
▁سطح	-8.71341
▁second	-8.71347
▁مرا	-8.71574
▁important	-8.71618
▁اسرائیل	-8.71754
▁post	-8.71827
il	-8.71896
▁کسانی	-8.72039
▁گوید	-8.7218
▁آورد	-8.72308
▁تح	-8.72315
▁توانم	-8.72355
له	-8.72408
▁38	-8.72729
▁بودم	-8.72735
▁دارای	-8.72775
گر	-8.72882
▁general	-8.7301
▁کتاب	-8.73139
it	-8.73292
▁th	-8.73306
▁himself	-8.73422
▁100	-8.73469
▁گفته	-8.73651
▁44	-8.73827
▁43	-8.74209
▁سایر	-8.74415
▁کشورهای	-8.74647
▁عالی	-8.74698
▁really	-8.74805
▁انرژی	-8.74843
▁واقعی	-8.7496
▁خارجه	-8.74996
▁within	-8.75096
▁king	-8.75175
▁together	-8.75404
▁مالی	-8.75529
▁دوشنبه	-8.75547
▁فرا	-8.75562
▁im	-8.75592
▁sun	-8.75707
▁support	-8.76104
▁ve	-8.76147
▁60	-8.76519
▁2007	-8.76586
h	-8.76591
▁شدم	-8.76698
m	-8.7677
▁خارجی	-8.76904
ری	-8.76989
▁main	-8.77002
▁held	-8.77202
▁47	-8.77261
▁سفر	-8.77379
ary	-8.77397
▁خانم	-8.77587
▁تیم	-8.77815
▁شامل	-8.78023
▁co	-8.78262
▁once	-8.78616
▁دوره	-8.78621
▁oil	-8.78625
▁مواد	-8.78752
▁هفته	-8.78763
▁میلیون	-8.78903
▁thought	-8.7891
▁different	-8.79044
▁might	-8.79108
▁oh	-8.79157
▁نبود	-8.79164
▁کلی	-8.79509
ment	-8.79615
▁بهتر	-8.79689
▁b	-8.79724
▁مشکل	-8.79739
▁سیاسی	-8.79787
▁among	-8.79946
ov	-8.79968
▁اجتماعی	-8.79984
▁انسان	-8.7999
▁جمع	-8.80264
▁دهم	-8.80369
▁سازی	-8.80398
▁ye	-8.80433
▁israel	-8.80452
▁بلند	-8.80558
▁جلسه	-8.80687
na	-8.80787
▁پدر	-8.80825
▁همراه	-8.80847
▁press	-8.80896
▁پایین	-8.81017
▁left	-8.81748
▁political	-8.819
▁برد	-8.81944
▁social	-8.82112
▁توانند	-8.82161
▁armenian	-8.82185
▁earth	-8.82212
▁whole	-8.82626
▁درخواست	-8.82666
▁دادن	-8.82735
▁working	-8.82756
▁n	-8.82825
یان	-8.82874
ست	-8.82893
ای	-8.8296
▁جلو	-8.82973
▁52	-8.83045
▁open	-8.83206
▁39	-8.83265
▁مشترک	-8.83283
▁طرف	-8.83357
▁nothing	-8.83439
ar	-8.83566
▁خانواده	-8.83593
▁37	-8.83646
▁مسکو	-8.83748
▁c	-8.83811
la	-8.8395
▁جایی	-8.83997
▁زمینه	-8.84231
ار	-8.84315
▁پول	-8.84564
▁دانست	-8.84666
▁پرداخت	-8.84842
ch	-8.84851
یک	-8.84895
▁42	-8.8492
▁داریم	-8.84995
▁رسد	-8.85157
▁دارید	-8.85226
▁st	-8.85282
▁70	-8.85369
▁done	-8.85442
▁مکان	-8.85505
▁اتحادیه	-8.85636
▁نمایش	-8.85638
▁خواهیم	-8.86188
▁night	-8.86203
▁تماس	-8.86266
▁rights	-8.8627
▁moscow	-8.86425
▁حضور	-8.86425
▁better	-8.86425
▁special	-8.86433
▁o	-8.86802
▁course	-8.86884
▁اعلام	-8.86889
▁56	-8.87187
یت	-8.87622
▁توانست	-8.87658
▁mind	-8.87747
▁پادشاه	-8.87757
ian	-8.87761
▁نداشت	-8.87793
▁show	-8.87821
▁سعی	-8.87877
پ	-8.87945
▁بحث	-8.88034
▁eyes	-8.88082
▁believe	-8.8814
▁بله	-8.8819
▁october	-8.88359
سی	-8.88413
▁p	-8.88421
▁used	-8.88638
▁yes	-8.88651
▁group	-8.88686
▁however	-8.88692
▁become	-8.88843
▁امکان	-8.88964
▁دید	-8.89093
▁متحده	-8.89209
▁2006	-8.89384
▁حالا	-8.89388
▁پشت	-8.89677
الات	-8.89837
▁live	-8.89865
▁already	-8.9
▁خواب	-8.9008
▁ثبت	-8.90166
▁جمعه	-8.90251
▁march	-8.90363
▁present	-8.90532
یل	-8.90812
▁54	-8.90814
▁hotel	-8.90846
▁words	-8.90899
▁خواست	-8.91245
▁55	-8.91247
▁مه	-8.91287
▁meet	-8.91288
▁knew	-8.91332
▁saw	-8.91341
ous	-8.91356
▁53	-8.91445
▁آغاز	-8.915
▁حدود	-8.91506
گان	-8.91616
▁everything	-8.91668
▁چشم	-8.92149
▁thousand	-8.92196
▁آ	-8.92237
▁thing	-8.92384
us	-8.9239
▁نسبت	-8.92514
▁program	-8.92593
▁46	-8.92593
نی	-8.92658
▁please	-8.92744
▁زن	-8.92754
▁امنیت	-8.92773
وف	-8.92964
▁دوم	-8.93043
▁اید	-8.93058
گ	-8.93128
▁next	-8.93194
▁حق	-8.93523
مان	-8.93678
▁large	-8.93837
ro	-8.94039
▁اکتبر	-8.94051
▁level	-8.9409
▁call	-8.94261
ج	-8.94273
▁change	-8.94325
▁رشد	-8.94396
شان	-8.94484
▁کنترل	-8.94569
گاه	-8.94599
▁family	-8.94743
▁90	-8.9484
▁58	-8.94862
▁حفظ	-8.94916
▁yet	-8.94921
▁دانم	-8.94943
▁remember	-8.94987
▁جامعه	-8.94997
▁air	-8.95017
▁اوکراین	-8.95028
▁گرفتم	-8.95313
▁گیری	-8.9544
▁سیاست	-8.95441
▁realized	-8.9571
▁called	-8.95719
▁لحظه	-8.95789
▁june	-8.95802
▁top	-8.95853
▁energy	-8.95964
▁جای	-8.95965
▁security	-8.96141
▁christ	-8.96146
▁خارج	-8.96235
ne	-8.96269
▁sea	-8.96421
▁ف	-8.96536
▁57	-8.96754
▁مقدس	-8.96846
▁possible	-8.96854
▁thou	-8.9687
لاوه	-8.9693
▁80	-8.96995
▁آقای	-8.97019
▁صفحه	-8.97024
▁عکس	-8.97111
▁یه	-8.97148
▁آخرین	-8.9725
▁اجرای	-8.97288
▁مسیح	-8.97307
▁درباره	-8.97381
▁آفتاب	-8.97557
▁money	-8.9756
ط	-8.97567
▁times	-8.97586
▁بینی	-8.97712
▁یکشنبه	-8.97736
▁انتخابات	-8.97784
▁درک	-8.97911
▁بسته	-8.98002
▁far	-8.98111
▁ایده	-8.98162
▁spirit	-8.98346
▁case	-8.98384
im	-8.98431
▁مشکلات	-8.98479
▁including	-8.98634
▁لازم	-8.98634
▁process	-8.9866
ma	-8.98694
▁روابط	-8.98814
▁تجربه	-8.98831
ur	-8.98938
▁هستیم	-8.98947
▁59	-8.99024
▁تقریبا	-8.99176
▁mr	-8.99298
is	-8.99402
▁دهیم	-8.99423
▁واقعیت	-8.99549
▁فرصت	-8.99685
را	-8.99719
▁november	-8.99722
▁پنج	-8.99786
▁young	-8.9981
ul	-8.99895
▁therefore	-9.00096
▁گوش	-9.00151
▁بد	-9.00209
▁وقت	-9.00236
یه	-9.00354
▁april	-9.00455
▁حرکت	-9.00637
▁2005	-9.00682
▁side	-9.00724
▁services	-9.0078
el	-9.00808
▁told	-9.00826
لا	-9.00868
▁team	-9.00929
less	-9.00942
▁جمله	-9.01191
▁یافته	-9.01204
▁ایم	-9.01445
ام	-9.01513
▁until	-9.01561
▁آپارتمان	-9.01562
▁نوامبر	-9.01747
▁g	-9.01765
▁روش	-9.01891
▁کس	-9.01903
▁آذربایجان	-9.01934
▁قوانین	-9.01934
▁production	-9.01946
▁amount	-9.01989
لی	-9.0203
▁زنده	-9.02108
▁local	-9.02121
▁حزب	-9.02307
▁question	-9.02418
at	-9.02426
▁علیه	-9.02426
▁قبلا	-9.0245
▁real	-9.02459
▁full	-9.02594
▁word	-9.02605
▁تاثیر	-9.02633
▁خورشید	-9.02682
▁چهارشنبه	-9.02682
▁بوده	-9.02781
▁january	-9.0287
▁dont	-9.02871
▁trade	-9.02922
▁having	-9.03058
▁ژانویه	-9.03247
▁دسامبر	-9.03815
▁مربوط	-9.03817
▁area	-9.03899
ta	-9.03922
▁شاید	-9.04011
▁cannot	-9.04012
▁داخلی	-9.04072
▁پیشنهاد	-9.04147
▁سی	-9.04163
▁transmitted	-9.04196
▁ال	-9.04297
▁l	-9.04635
▁خودش	-9.04758
▁death	-9.04961
▁monday	-9.04962
▁person	-9.05077
▁ever	-9.05181
▁car	-9.05269
▁سرعت	-9.05346
▁future	-9.05539
▁لطفا	-9.05577
▁center	-9.057
▁heard	-9.05758
▁کم	-9.05857
22	-9.05891
▁felt	-9.05927
تا	-9.05999
▁شماره	-9.06003
▁fact	-9.06054
▁ژوئن	-9.06121
▁ارزش	-9.06157
▁بیا	-9.06269
▁moment	-9.06281
▁خدای	-9.06308
▁bring	-9.06475
▁چی	-9.06521
▁شکل	-9.06739
▁سایت	-9.0674
▁بانک	-9.0684
▁سپتامبر	-9.06901
ter	-9.06977
▁office	-9.07015
▁محلی	-9.07034
▁mother	-9.07098
تون	-9.07246
▁december	-9.07294
▁turn	-9.07331
▁باشند	-9.07363
ton	-9.07446
▁محصولات	-9.07512
▁given	-9.07639
▁few	-9.07691
▁مرگ	-9.07698
▁صدای	-9.07711
▁دقیقه	-9.07885
▁ظاهر	-9.07951
دی	-9.08029
وس	-9.08044
▁affairs	-9.08136
▁situation	-9.08253
▁شهرستان	-9.08293
▁fire	-9.08396
▁products	-9.08441
▁period	-9.08481
▁آتش	-9.08481
▁پا	-9.08544
▁total	-9.08574
▁central	-9.0868
▁september	-9.08879
▁مناسب	-9.08934
▁محل	-9.08977
▁date	-9.09032
رو	-9.09055
▁تعیین	-9.09079
▁دانش	-9.09238
▁دختر	-9.09242
▁news	-9.09248
▁بهبود	-9.09281
▁موفقیت	-9.09289
▁further	-9.09481
▁بازار	-9.09611
▁نامه	-9.09646
▁states	-9.09715
▁تجاری	-9.09723
▁small	-9.09813
man	-9.10007
▁مشخص	-9.10047
w	-9.10048
▁able	-9.10102
گو	-9.10128
▁اون	-9.10217
▁فناوری	-9.10491
▁مردان	-9.10542
لو	-9.10589
▁بچه	-9.10596
▁جا	-9.10609
▁cooperation	-9.10694
▁south	-9.10699
▁living	-9.10706
وا	-9.10724
تی	-9.10764
▁form	-9.10876
▁طولانی	-9.10918
se	-9.10951
35	-9.10957
▁read	-9.11024
▁means	-9.11232
یا	-9.11271
▁line	-9.1144
▁conference	-9.11511
▁bank	-9.11539
▁سن	-9.11564
▁saying	-9.11647
▁مسیر	-9.1167
▁july	-9.11675
▁عشق	-9.11717
▁european	-9.11734
▁رسمی	-9.11788
▁women	-9.11924
▁اقدامات	-9.11955
▁list	-9.12142
▁ایمان	-9.12142
▁شخصی	-9.12328
▁مدیریت	-9.12345
▁آید	-9.12382
▁sure	-9.12534
▁خوش	-9.12541
▁میلیارد	-9.12543
▁چهار	-9.12545
وم	-9.12649
▁اعمال	-9.12756
▁مارس	-9.1276
ive	-9.12823
23	-9.12859
▁دی	-9.12888
▁august	-9.12957
▁مشاهده	-9.12957
نگ	-9.12976
▁آوریل	-9.12981
▁نگه	-9.13158
▁gave	-9.13172
▁price	-9.13175
ra	-9.13347
▁quality	-9.13375
عث	-9.13404
نو	-9.13454
▁following	-9.13525
▁تشکیل	-9.13584
to	-9.13672
▁اوه	-9.13894
ate	-9.13949
▁انتظار	-9.13955
انی	-9.13973
am	-9.14064
▁آمده	-9.14071
as	-9.14091
▁خودم	-9.14113
▁start	-9.14156
▁plan	-9.14205
▁ماشین	-9.14217
▁everyone	-9.14222
▁million	-9.14239
▁نو	-9.14264
ح	-9.14387
▁market	-9.14395
▁اردیبهشت	-9.14425
▁نهایت	-9.14434
▁دیدار	-9.14495
▁هوا	-9.14667
▁asked	-9.14684
▁book	-9.1474
کا	-9.14844
▁زنان	-9.14926
ترین	-9.15006
▁دل	-9.15034
▁نزد	-9.15046
▁000	-9.15074
▁چیزهای	-9.15178
▁نشده	-9.15249
▁کردیم	-9.15452
▁policy	-9.15487
▁making	-9.15489
▁حمل	-9.15702
44	-9.1581
▁education	-9.15847
▁رود	-9.15971
▁trying	-9.16116
▁body	-9.16131
▁لو	-9.16249
▁کمتر	-9.16266
▁brought	-9.16345
▁موقعیت	-9.1635
▁کیفیت	-9.1635
▁issues	-9.16483
▁کنفرانس	-9.1656
▁says	-9.16663
▁understand	-9.16705
▁خط	-9.16722
▁جوان	-9.16737
▁نوع	-9.16741
▁control	-9.16769
▁نجات	-9.16776
▁seem	-9.1687
▁دستور	-9.16889
▁اساسی	-9.16926
دار	-9.16988
▁تجارت	-9.16998
▁created	-9.17072
62	-9.1708
▁گاهی	-9.17161
▁نمایندگان	-9.17209
▁کنندگان	-9.1737
▁york	-9.17427
▁فشار	-9.17429
▁big	-9.17632
▁result	-9.1769
▁رنگ	-9.17806
v	-9.17916
▁legal	-9.17952
▁stay	-9.17955
▁اقتصاد	-9.18019
▁مجبور	-9.18081
▁طراحی	-9.18177
▁روشن	-9.18291
▁سوال	-9.18318
▁نباید	-9.1852
▁available	-9.18521
▁باقی	-9.1853
▁بشر	-9.18551
▁داری	-9.18596
37	-9.18601
▁feel	-9.18637
▁week	-9.18644
▁sent	-9.1872
▁بندی	-9.18729
▁نیویورک	-9.18741
خ	-9.18762
▁looking	-9.18857
▁گل	-9.18881
▁conditions	-9.18883
te	-9.18899
▁comes	-9.19102
▁روند	-9.19107
▁آمریکا	-9.19133
▁اشار	-9.1922
هم	-9.19242
▁یورو	-9.19275
▁کمیته	-9.19405
▁february	-9.19627
▁results	-9.19803
▁event	-9.19902
▁nor	-9.2007
▁committee	-9.20073
اب	-9.20146
▁knowing	-9.20257
▁حداقل	-9.20296
▁جان	-9.20314
▁دادند	-9.20414
▁thus	-9.20594
▁قدیمی	-9.20652
▁others	-9.20682
▁speak	-9.20733
▁council	-9.20745
▁حرف	-9.20777
▁members	-9.20779
▁job	-9.20831
▁friday	-9.20971
▁کافی	-9.20972
▁حد	-9.21012
▁finally	-9.21054
▁na	-9.21165
▁نتایج	-9.21196
غ	-9.21203
▁کی	-9.21295
▁سوی	-9.21319
▁توانیم	-9.21342
▁thursday	-9.21422
▁موارد	-9.21427
▁united	-9.21497
56	-9.21514
▁clear	-9.21518
▁ask	-9.21544
▁four	-9.21638
▁کودکان	-9.21706
▁فوریه	-9.2179
id	-9.2184
24	-9.21866
▁military	-9.21876
▁علاقه	-9.21876
▁anything	-9.21877
▁sat	-9.21892
▁peace	-9.21903
▁مرکزی	-9.21955
▁experience	-9.22084
16	-9.22116
▁relations	-9.22235
ول	-9.22254
▁پنجشنبه	-9.22333
nt	-9.22359
▁art	-9.22369
▁school	-9.22421
▁ترتیب	-9.22561
▁ground	-9.22562
▁مبارزه	-9.22575
21	-9.22746
▁necessary	-9.22791
▁ukraine	-9.22791
▁شوم	-9.2293
▁play	-9.23049
▁جریان	-9.23254
▁کسب	-9.23299
▁نظامی	-9.23319
▁ماده	-9.23463
▁thy	-9.23471
▁حقیقت	-9.23494
▁اعضای	-9.23577
به	-9.23663
اد	-9.23784
▁لذت	-9.23946
▁true	-9.23946
▁north	-9.23978
13	-9.24011
▁received	-9.2408
43	-9.24114
ies	-9.24163
▁sometimes	-9.24178
▁didn	-9.24188
▁taken	-9.24235
▁court	-9.24284
12	-9.24324
et	-9.24326
▁61	-9.24403
▁construction	-9.24414
▁حساب	-9.24431
یس	-9.24459
▁mean	-9.24474
▁خون	-9.24578
▁اهمیت	-9.24645
▁بدن	-9.24685
27	-9.24767
▁health	-9.24789
▁قلب	-9.24982
▁لباس	-9.25116
دا	-9.25144
▁لا	-9.25167
▁بیان	-9.25209
▁دفتر	-9.25349
بر	-9.25549
▁leave	-9.25572
▁گیرد	-9.25608
33	-9.25688
▁near	-9.25693
▁مشارکت	-9.25821
▁تایید	-9.25828
▁music	-9.25995
▁ریزی	-9.26116
▁azerbaijan	-9.26225
▁design	-9.26257
83	-9.26451
▁آل	-9.26453
▁اضافه	-9.26534
55	-9.26572
▁view	-9.26642
▁علی	-9.26749
ad	-9.26781
ry	-9.26786
▁1394	-9.26842
▁holy	-9.26854
▁بودن	-9.2701
▁truth	-9.27012
▁هی	-9.27017
▁ی	-9.27137
▁دیگران	-9.27167
▁ماند	-9.27206
▁regard	-9.27214
▁گناه	-9.2723
▁شورای	-9.27386
▁events	-9.27476
▁مناطق	-9.27492
▁food	-9.27493
63	-9.27613
▁نمایشگاه	-9.27753
▁account	-9.27877
▁above	-9.27975
▁sunday	-9.27976
57	-9.28168
lo	-9.2819
▁کجا	-9.28214
▁کالیفرنیا	-9.28217
▁hold	-9.28228
▁rest	-9.28259
▁seen	-9.28351
▁خرید	-9.28371
▁خ	-9.28449
ث	-9.28486
▁stop	-9.28498
▁visit	-9.28498
▁hands	-9.28625
▁point	-9.2867
▁چالش	-9.28703
▁woman	-9.28705
▁دانشگاه	-9.28718
▁سنگ	-9.28734
ial	-9.28773
▁خاص	-9.28813
▁شناخت	-9.28877
▁california	-9.28946
▁گونه	-9.29104
▁ترک	-9.29237
نا	-9.29286
▁کارهای	-9.29432
▁مسائل	-9.29436
▁جو	-9.29438
▁kind	-9.2958
▁اعتماد	-9.29682
▁five	-9.29698
um	-9.29722
▁looked	-9.29784
▁began	-9.29815
▁friends	-9.29826
▁گرجستان	-9.29928
▁history	-9.29928
▁باشم	-9.30055
▁church	-9.3012
▁half	-9.30176
▁ma	-9.30185
▁cut	-9.30238
02	-9.30401
▁tuesday	-9.30423
▁صلح	-9.30423
▁pay	-9.3043
▁رایگان	-9.30435
▁میوه	-9.3044
▁اجرا	-9.3048
▁مطمئن	-9.30624
▁دفاع	-9.30671
67	-9.30923
▁coming	-9.30937
▁آسمان	-9.31043
92	-9.31065
▁article	-9.31091
▁اطمینان	-9.31169
▁later	-9.31214
78	-9.31259
▁soon	-9.31295
▁ر	-9.3132
came	-9.31337
▁billion	-9.31432
▁road	-9.31462
32	-9.31553
▁دار	-9.3158
▁رسیده	-9.31802
▁eye	-9.31892
▁industry	-9.31921
▁k	-9.31992
جر	-9.32126
▁طبقه	-9.3227
spite	-9.32339
▁تضمین	-9.32425
▁چین	-9.32449
▁master	-9.32461
▁ago	-9.3254
▁projects	-9.32573
ol	-9.32705
▁care	-9.32716
▁months	-9.32736
▁increase	-9.32758
▁طرح	-9.3295
38	-9.33113
▁child	-9.33185
▁wednesday	-9.33187
▁آمیز	-9.33223
▁آلمان	-9.33287
▁turned	-9.33289
07	-9.33445
▁تک	-9.3352
▁دنیا	-9.33798
ts	-9.33825
▁myself	-9.33954
▁نخواهد	-9.33992
▁ready	-9.34067
▁building	-9.34074
▁مجموعه	-9.34196
▁ج	-9.342
▁ملاقات	-9.34211
26	-9.34228
ca	-9.3431
▁دادگاه	-9.34324
▁field	-9.34581
46	-9.34642
31	-9.34724
▁capital	-9.34813
▁رهبر	-9.3487
65	-9.34976
▁فرد	-9.35046
▁تنگه	-9.35073
▁شدت	-9.35213
کی	-9.35348
▁based	-9.35359
▁economy	-9.35506
▁اتفاق	-9.3553
▁past	-9.35542
▁hit	-9.35579
▁سریع	-9.35605
▁81	-9.35613
▁صنعت	-9.35617
74	-9.35764
▁almost	-9.35771
▁بخشی	-9.35792
▁non	-9.35806
▁سوم	-9.35848
▁اس	-9.35927
▁blood	-9.35939
03	-9.35989
▁works	-9.36001
▁انجمن	-9.36029
▁data	-9.36039
72	-9.36218
▁پست	-9.36249
▁dead	-9.36321
tan	-9.36328
▁دیدن	-9.36336
▁آرام	-9.364
ism	-9.36407
▁شکست	-9.3647
▁least	-9.36555
▁طبیعی	-9.36555
▁منابع	-9.36555
▁ra	-9.36563
▁مادر	-9.36582
چ	-9.36586
52	-9.36615
بی	-9.36818
▁attention	-9.36819
▁front	-9.36847
▁certain	-9.36951
▁current	-9.36952
ci	-9.37041
▁voice	-9.37052
▁مجلس	-9.37083
54	-9.37085
▁سرویس	-9.37085
▁feeling	-9.37133
▁تامین	-9.3714
47	-9.37159
85	-9.37187
▁short	-9.37217
ke	-9.37224
▁سنت	-9.37268
▁هایش	-9.37301
▁خدمت	-9.37327
▁h	-9.37339
▁قوی	-9.37469
77	-9.37551
▁bar	-9.37565
▁فراموش	-9.37614
29	-9.37772
64	-9.37788
66	-9.37809
▁board	-9.38007
76	-9.38016
▁تخت	-9.38056
ting	-9.38122
▁ثابت	-9.38148
▁whom	-9.38166
▁bite	-9.38193
▁صدا	-9.38197
کس	-9.3836
▁act	-9.38372
▁گاز	-9.38405
▁enough	-9.38416
▁یهوه	-9.38417
▁tenge	-9.38423
سک	-9.38438
▁hear	-9.38477
▁برو	-9.38517
▁الان	-9.38569
▁جدی	-9.38573
▁دیده	-9.38602
▁توافق	-9.38637
▁okay	-9.38686
▁بالاخره	-9.38692
▁ساختمان	-9.3887
▁خصوصی	-9.3888
▁باشه	-9.38979
▁la	-9.38999
▁داشتند	-9.39073
73	-9.39089
▁پی	-9.39178
▁خیر	-9.39223
▁sever	-9.39326
▁decision	-9.39483
▁مدرسه	-9.39496
▁along	-9.395
▁weather	-9.39513
34	-9.39535
25	-9.39714
▁مردی	-9.39742
▁آزاد	-9.39767
▁اینها	-9.39771
▁طبق	-9.39886
▁ده	-9.39899
▁organization	-9.40049
ist	-9.40095
▁europe	-9.40292
▁سراسر	-9.40314
▁سو	-9.40399
▁منتظر	-9.4071
▁جز	-9.40742
▁lot	-9.40872
▁regional	-9.40907
▁71	-9.4098
▁tel	-9.40994
▁اف	-9.41143
▁قانونی	-9.41247
▁رفتار	-9.41319
▁hope	-9.41322
48	-9.4141
▁ازدواج	-9.41414
▁فوق	-9.41414
co	-9.4147
▁خبر	-9.41612
ce	-9.41684
▁فصل	-9.41691
▁کمیسیون	-9.41691
▁غروب	-9.41692
▁ورود	-9.41873
▁problems	-9.41911
▁third	-9.41969
▁اطراف	-9.41969
▁close	-9.41975
▁yeah	-9.41984
ود	-9.42014
▁union	-9.42063
▁known	-9.42142
▁داخل	-9.4215
▁due	-9.42255
▁خب	-9.42267
▁حس	-9.42309
▁met	-9.42326
▁آره	-9.42462
▁باغ	-9.42462
▁personal	-9.4247
▁ترس	-9.4252
▁حوزه	-9.42528
70	-9.42536
18	-9.42644
▁added	-9.42672
▁ل	-9.42736
42	-9.43067
▁pass	-9.43077
me	-9.43078
▁check	-9.43088
▁nature	-9.43088
▁هستی	-9.4313
▁افتاد	-9.43215
yan	-9.4327
ga	-9.43274
▁offer	-9.43366
▁john	-9.43369
▁آشکار	-9.43369
▁روبرو	-9.43369
▁taking	-9.43371
96	-9.43403
▁باور	-9.43417
اس	-9.43472
▁training	-9.43512
▁پیشرفت	-9.43556
45	-9.43564
▁doing	-9.43761
▁modern	-9.4383
▁فریاد	-9.43935
▁talk	-9.43966
▁matter	-9.43988
19	-9.43997
▁red	-9.44043
17	-9.44059
▁اوضاع	-9.44219
▁چقدر	-9.4422
▁pro	-9.44279
be	-9.4431
ling	-9.44357
▁society	-9.44504
▁various	-9.44505
▁return	-9.44508
▁round	-9.4451
94	-9.4495
▁اشتباه	-9.45028
tic	-9.45089
▁فعال	-9.45102
ant	-9.45129
▁burning	-9.45216
▁آسان	-9.4524
▁دهنده	-9.45297
▁activities	-9.45364
▁البته	-9.45364
▁بازگشت	-9.45364
▁هیئت	-9.45364
▁quite	-9.45374
▁page	-9.45473
rs	-9.45526
▁تنظیم	-9.45604
▁civil	-9.45646
▁مربع	-9.45662
▁anti	-9.45755
▁بیشتری	-9.45881
▁یابد	-9.45941
▁حرفه	-9.45989
▁started	-9.46035
▁ابتدا	-9.46166
تو	-9.4618
▁rich	-9.46222
▁ارتش	-9.46231
گیری	-9.46233
ka	-9.46242
82	-9.46267
ما	-9.46302
▁دریا	-9.4631
▁قوم	-9.46388
80	-9.46453
▁پارک	-9.4649
▁fear	-9.46505
▁silver	-9.46521
▁دیر	-9.46591
ge	-9.46597
08	-9.46614
87	-9.467
28	-9.46704
▁جنوبی	-9.46803
▁themselves	-9.46813
▁معاون	-9.46813
▁مدرن	-9.46815
▁noted	-9.46924
▁جمعیت	-9.46951
▁فرهنگ	-9.4705
نده	-9.47062
▁gas	-9.47095
▁عقب	-9.47105
eth	-9.4714
▁لیست	-9.47147
ie	-9.47229
00	-9.47249
▁class	-9.47311
▁higher	-9.47331
▁idea	-9.47342
▁دسترسی	-9.47379
▁saturday	-9.47399
▁تگزاس	-9.47399
▁تاکید	-9.47399
▁روسی	-9.47461
▁بعدی	-9.47548
▁east	-9.47572
▁فروش	-9.47592
ir	-9.47626
▁گرم	-9.47636
49	-9.47648
▁companies	-9.47693
▁مقایسه	-9.47693
▁language	-9.4775
▁site	-9.47757
▁position	-9.47835
go	-9.47847
▁kazakh	-9.47986
▁texas	-9.47988
▁مقامات	-9.48006
▁رها	-9.48013
14	-9.4804
men	-9.48056
چند	-9.48057
▁thank	-9.4807
os	-9.48176
▁access	-9.48176
▁گذاشت	-9.48184
یز	-9.48236
▁مرحله	-9.48284
▁door	-9.48335
▁یعنی	-9.4858
▁عبور	-9.48586
▁rooms	-9.4875
▁mar	-9.48808
un	-9.48931
▁کارت	-9.48938
vi	-9.4897
ll	-9.49057
▁دادم	-9.49176
▁financial	-9.49177
▁knowledge	-9.49177
▁deadline	-9.4918
▁گفتم	-9.49287
59	-9.49324
▁especially	-9.49476
▁culture	-9.49476
▁district	-9.49549
▁پل	-9.49581
با	-9.49582
93	-9.49631
▁معمول	-9.49653
▁often	-9.4972
▁u	-9.49813
▁less	-9.49818
▁قدم	-9.49889
▁create	-9.50051
▁ونقل	-9.50077
▁گسترده	-9.50077
▁شوروی	-9.50079
▁toward	-9.50279
▁department	-9.50381
▁walk	-9.5042
▁investment	-9.50465
▁park	-9.50556
▁رویداد	-9.50582
▁آزادی	-9.50656
▁اقامت	-9.50669
▁تصور	-9.50684
▁پاک	-9.50711
84	-9.50719
▁خوشحال	-9.50748
99	-9.5076
▁addition	-9.5101
20	-9.51095
▁آرامش	-9.51145
▁خیابان	-9.51291
▁لی	-9.51301
▁تصویر	-9.51303
▁poor	-9.51307
▁ادار	-9.51411
من	-9.51453
▁cost	-9.51466
▁break	-9.51509
▁photo	-9.51624
▁table	-9.51683
ut	-9.51727
10	-9.51741
86	-9.51887
▁تقویت	-9.51904
▁provide	-9.51954
ak	-9.52059
ent	-9.52068
90	-9.52116
▁اقدام	-9.52163
▁try	-9.5217
▁جشن	-9.52211
▁حمام	-9.52212
▁اوقات	-9.52212
▁bullet	-9.52216
▁miss	-9.52233
ful	-9.52272
▁dark	-9.52323
▁won	-9.52323
▁georgia	-9.52422
▁توضیح	-9.52472
▁using	-9.52478
▁address	-9.52498
36	-9.52531
▁someone	-9.52536
▁behold	-9.52553
▁انگیز	-9.5259
▁age	-9.52624
▁شویم	-9.52627
ah	-9.52743
▁تن	-9.52749
▁reported	-9.52777
▁commission	-9.52803
▁فرانسه	-9.5283
▁hot	-9.52872
▁wanted	-9.52907
ص	-9.52945
▁pre	-9.53037
▁citizens	-9.53039
▁west	-9.53159
▁2004	-9.53216
▁agreement	-9.53253
▁پیام	-9.53282
▁جدیدی	-9.5345
▁فضای	-9.53463
▁run	-9.53489
▁بودجه	-9.53512
▁مدیر	-9.53544
▁persons	-9.53546
▁ملل	-9.53765
▁media	-9.53793
▁bed	-9.53837
▁دستگاه	-9.5388
da	-9.53888
▁forward	-9.53972
▁ص	-9.54073
▁else	-9.54087
▁چیست	-9.54106
▁town	-9.54165
▁متحد	-9.54256
▁faith	-9.54301
ty	-9.54302
▁صد	-9.54342
▁reason	-9.54389
▁opportunity	-9.54392
▁private	-9.54397
▁زیاد	-9.54401
▁ات	-9.54459
▁مو	-9.5446
تان	-9.54593
▁natural	-9.54602
▁رفته	-9.5464
ine	-9.54686
▁نظارت	-9.54708
▁پنهان	-9.54708
▁کودک	-9.54756
97	-9.54823
▁feet	-9.55042
▁باشیم	-9.55153
▁sin	-9.55205
71	-9.5524
50	-9.55262
58	-9.55282
▁heaven	-9.55336
▁wife	-9.55342
▁جستجو	-9.55342
▁problem	-9.55424
▁move	-9.55557
▁گفتند	-9.55558
▁game	-9.55588
79	-9.55675
▁ساده	-9.55678
▁کیلومتر	-9.55681
53	-9.5569
▁foundation	-9.55716
▁army	-9.55725
▁wait	-9.55732
▁پرسید	-9.55736
▁نیروهای	-9.55808
▁خطر	-9.55821
▁اندازی	-9.55836
▁س	-9.55965
▁سا	-9.55965
▁gold	-9.55968
▁friend	-9.55978
▁ضد	-9.5598
▁ببینید	-9.56008
di	-9.56086
▁subject	-9.56117
▁تغییرات	-9.56146
▁بلا	-9.56198
▁enjoy	-9.563
▁midnight	-9.563
▁العاده	-9.563
▁مطابق	-9.563
▁اخبار	-9.56301
▁property	-9.56302
▁low	-9.56334
01	-9.56368
▁li	-9.56415
39	-9.56508
ha	-9.5662
▁مسابقه	-9.56622
▁morning	-9.56622
▁دانید	-9.56662
وی	-9.56802
▁مطبوعاتی	-9.56827
▁کوه	-9.56908
▁black	-9.56946
▁single	-9.56949
▁طلو	-9.56954
▁centre	-9.56961
▁خورد	-9.57072
▁official	-9.57088
▁بزرگی	-9.57158
▁ca	-9.57182
ted	-9.57199
▁رابطه	-9.57309
68	-9.57312
▁موزه	-9.57335
ated	-9.57364
▁رزرو	-9.57598
▁نسل	-9.57607
▁step	-9.57628
▁ten	-9.57628
30	-9.57632
▁early	-9.57646
ph	-9.57648
▁stand	-9.57716
06	-9.57753
up	-9.57839
▁interest	-9.57845
95	-9.57903
▁itself	-9.57918
▁built	-9.57943
hether	-9.57954
▁200	-9.57962
▁اولیه	-9.57983
though	-9.57983
▁reports	-9.58078
▁امر	-9.58089
41	-9.58107
▁issue	-9.58204
▁ساحل	-9.58292
▁space	-9.58299
▁ساز	-9.58364
▁زیبا	-9.58598
▁بگیرید	-9.58603
▁قسمت	-9.58618
▁صرف	-9.58659
▁example	-9.58732
▁fall	-9.58736
▁mediamax	-9.58902
▁معرفی	-9.58902
▁مسئولیت	-9.58911
age	-9.58917
▁protection	-9.58918
سا	-9.59
▁شدید	-9.59045
▁election	-9.59067
▁شبکه	-9.59248
mo	-9.59258
▁برق	-9.59369
▁cloud	-9.59399
▁action	-9.59423
▁mon	-9.59509
▁عد	-9.5954
▁implementation	-9.5957
▁مثال	-9.59586
▁کشتی	-9.59605
▁عمیق	-9.59613
▁فرهنگی	-9.59626
زی	-9.59789
▁report	-9.59846
▁research	-9.59867
▁ensure	-9.5992
▁continue	-9.59995
88	-9.6015
▁معنای	-9.60154
▁gone	-9.60173
▁success	-9.60219
▁yourself	-9.60229
▁صندوق	-9.60229
▁مجمع	-9.60229
▁آسیب	-9.60229
▁ro	-9.60324
▁representatives	-9.60334
▁v	-9.60499
▁evil	-9.60563
60	-9.60582
▁آه	-9.60594
▁hours	-9.60619
15	-9.60652
▁nations	-9.6072
▁وب	-9.60873
▁fat	-9.6088
▁شخص	-9.60921
ver	-9.60925
▁رسانه	-9.60926
▁مقدار	-9.60953
81	-9.61057
▁شمالی	-9.61131
▁bad	-9.61287
51	-9.61304
ck	-9.6141
▁پیر	-9.61486
98	-9.61512
▁beginning	-9.61574
▁die	-9.61581
ors	-9.61589
▁91	-9.61608
▁strong	-9.61691
▁هفت	-9.6177
▁revolution	-9.61895
▁موفق	-9.61905
▁nazarbayev	-9.61912
▁growth	-9.61923
نشان	-9.6195
▁بزرگتر	-9.62099
▁contact	-9.62105
▁نان	-9.62115
▁receive	-9.62116
▁منظور	-9.62129
▁wish	-9.62279
▁جاده	-9.62281
▁ارتباط	-9.62292
▁فیلم	-9.62295
▁امضا	-9.6234
▁انگلیسی	-9.62421
▁individual	-9.62451
▁جدا	-9.62551
▁behind	-9.62594
▁اثر	-9.62594
▁مدیامکس	-9.62594
▁سفید	-9.62597
▁نرم	-9.62685
▁provided	-9.62812
▁late	-9.62898
▁تعطیلات	-9.62943
▁کور	-9.62972
▁parties	-9.62976
▁dis	-9.62983
▁مصرف	-9.63009
یر	-9.63017
▁tried	-9.63055
▁شادی	-9.63085
sh	-9.63088
▁راحت	-9.63199
▁thee	-9.63278
▁neither	-9.6328
▁activity	-9.63281
04	-9.63299
▁رد	-9.6344
05	-9.63477
no	-9.63493
▁students	-9.63532
▁cities	-9.63633
▁نظربایف	-9.63648
▁برود	-9.63894
▁management	-9.63975
▁نکرده	-9.63992
▁کلمه	-9.63994
▁lost	-9.64001
▁white	-9.64058
▁china	-9.64062
▁دعا	-9.64079
ti	-9.64161
وت	-9.64203
▁key	-9.64217
▁changes	-9.64242
▁آوری	-9.64372
▁دسترس	-9.64414
▁حقوقی	-9.64516
▁آموزشی	-9.6453
▁انقلاب	-9.64628
▁french	-9.64666
▁wrong	-9.64666
▁گسترش	-9.64666
▁david	-9.64668
led	-9.647
▁fight	-9.64728
▁participants	-9.6477
▁زدن	-9.64788
69	-9.64967
▁self	-9.65011
▁easy	-9.65016
▁english	-9.65016
▁global	-9.65016
▁university	-9.65016
▁ذهن	-9.65072
▁امید	-9.65222
▁راحتی	-9.65269
▁ولی	-9.65305
mp	-9.65338
▁تازه	-9.65371
▁fruits	-9.65428
▁کشید	-9.6549
▁اطلاع	-9.65653
▁internet	-9.65719
▁outside	-9.65755
▁غذا	-9.65783
▁ز	-9.65796
▁غیره	-9.65815
▁سرش	-9.65893
▁final	-9.65941
▁حالت	-9.66065
▁organizations	-9.66084
▁answer	-9.66095
▁apartment	-9.66308
▁داشتم	-9.66345
▁نکرد	-9.66359
▁longer	-9.66366
sa	-9.66368
▁تصوی	-9.66376
▁plans	-9.664
▁افتتاح	-9.66427
▁bit	-9.66471
▁تور	-9.66517
▁سرزمین	-9.66558
▁questions	-9.66574
▁minutes	-9.66604
▁حمله	-9.667
▁نقش	-9.66761
▁size	-9.66763
▁chance	-9.66789
▁km	-9.66809
▁فرو	-9.6682
▁کشاورزی	-9.66845
▁send	-9.66852
▁چشمان	-9.66935
▁شانس	-9.66983
vo	-9.66993
▁dream	-9.67029
▁pa	-9.67078
▁common	-9.67141
▁مراسم	-9.67148
▁برداشت	-9.67151
▁اهداف	-9.67153
▁allow	-9.67243
▁hundred	-9.67388
▁boy	-9.67469
40	-9.6748
▁ویژ	-9.67493
▁population	-9.67498
▁دعوت	-9.67498
▁درآمد	-9.67613
▁شمال	-9.67667
▁fine	-9.67689
▁نهایی	-9.6769
▁workers	-9.6769
▁دنیای	-9.67732
یست	-9.67751
11	-9.67755
▁german	-9.6777
▁گرد	-9.67845
▁برسد	-9.67859
▁بلاروس	-9.67859
▁eu	-9.6797
▁محیط	-9.68005
مون	-9.6805
▁forum	-9.68062
▁فرار	-9.68129
▁budget	-9.68219
▁لبخند	-9.68219
▁مسابقات	-9.68219
▁نسخه	-9.68219
اک	-9.68229
▁قصد	-9.68239
▁ترکیه	-9.68243
▁تسلیم	-9.68253
▁پذیر	-9.68299
▁خواهی	-9.68301
▁500	-9.68377
▁اوت	-9.68407
▁قطع	-9.68429
▁انداز	-9.6852
▁دسته	-9.68525
گا	-9.68561
▁beautiful	-9.68581
▁jehovah	-9.68581
▁نماینده	-9.68584
▁نرخ	-9.68585
▁تجهیزات	-9.68585
▁گویم	-9.68616
lu	-9.68723
▁wind	-9.68769
▁قربانی	-9.68791
▁brother	-9.68843
pe	-9.68925
de	-9.68984
▁parliament	-9.68986
▁cultural	-9.68987
▁ایران	-9.69004
x	-9.69018
▁stone	-9.69035
▁learn	-9.69109
▁گرفتن	-9.69216
رد	-9.69255
▁مهلت	-9.69315
▁alone	-9.69319
▁san	-9.69343
▁terms	-9.69352
▁بیدار	-9.6936
▁شهروندان	-9.69369
▁فنی	-9.6938
▁ha	-9.69433
می	-9.69447
▁federation	-9.69676
▁اغلب	-9.69676
▁سازماندهی	-9.69677
▁rather	-9.6968
▁شغل	-9.69716
▁discussed	-9.69811
▁میز	-9.69903
▁material	-9.69952
▁value	-9.69954
ance	-9.69956
▁زده	-9.70028
▁حداکثر	-9.70044
▁chief	-9.70045
▁پلیس	-9.70089
▁آنقدر	-9.70097
▁ill	-9.70111
▁راست	-9.70145
▁join	-9.70299
از	-9.70362
▁اح	-9.70405
▁basis	-9.70416
▁جزئیات	-9.70427
ct	-9.70506
▁فرزندان	-9.7052
▁تمامی	-9.7052
▁بهره	-9.70533
land	-9.70603
▁particular	-9.70652
▁purpose	-9.70697
ard	-9.70772
▁ambassador	-9.70783
▁فدراسیون	-9.70783
▁غلات	-9.70823
▁طی	-9.70846
▁اسب	-9.70918
▁month	-9.7096
▁elections	-9.70973
▁eat	-9.71056
ban	-9.71089
▁کلیسای	-9.71094
ization	-9.71123
▁seven	-9.7113
▁نقطه	-9.71155
▁چارچوب	-9.71155
▁صبر	-9.71191
مین	-9.71238
▁پ	-9.71242
▁reach	-9.71284
▁متفاوت	-9.71338
وک	-9.71444
▁respect	-9.71517
▁انتقال	-9.71528
▁نفس	-9.71528
▁governor	-9.71553
▁dear	-9.71599
▁el	-9.71768
▁معتقد	-9.71903
▁پیاده	-9.71903
▁en	-9.71921
89	-9.71967
▁fell	-9.71997
▁needs	-9.71997
▁getting	-9.72014
▁شگفت	-9.72093
▁شک	-9.72133
ni	-9.72134
▁soviet	-9.72203
▁wide	-9.72214
▁kingdom	-9.72279
▁شاهزاده	-9.72279
▁equipment	-9.7228
09	-9.72416
خانه	-9.72517
▁دقیق	-9.72541
▁واحد	-9.72588
▁technical	-9.72656
▁سبک	-9.72659
▁چهره	-9.72701
▁زودی	-9.72719
▁اینک	-9.72732
▁باد	-9.72919
▁rose	-9.72995
▁عضو	-9.7302
▁دانستم	-9.73086
▁مراقبت	-9.73126
ریاست	-9.7321
▁پزشکی	-9.73277
▁sunset	-9.73421
▁فاصله	-9.73437
▁بالای	-9.73539
▁increased	-9.73578
om	-9.73596
▁هنر	-9.73625
▁save	-9.73707
▁مستقیم	-9.73732
▁hour	-9.73747
سون	-9.73759
نامه	-9.73795
نس	-9.73822
▁بگیرد	-9.73827
▁con	-9.73847
▁needed	-9.73962
▁complete	-9.73967
▁share	-9.74036
▁نگران	-9.74053
ئ	-9.74074
▁green	-9.74079
▁چک	-9.74125
▁بالاتر	-9.74179
▁چطور	-9.7418
▁running	-9.7418
▁gonna	-9.74184
▁consider	-9.74243
▁germany	-9.74275
▁گرفتند	-9.74276
▁systems	-9.74379
▁نفت	-9.74404
▁throw	-9.74463
▁member	-9.74505
▁اصلاح	-9.74524
▁groups	-9.74587
▁mo	-9.74701
▁رسیدن	-9.74705
▁ح	-9.74707
▁هست	-9.74714
قبال	-9.74852
ض	-9.7486
▁رفتند	-9.7487
▁happy	-9.74951
▁یادآور	-9.74951
اری	-9.74951
▁دکتر	-9.74951
▁نویس	-9.74971
do	-9.75023
▁قول	-9.75068
▁گریه	-9.75151
ish	-9.75163
ژ	-9.75185
▁سلام	-9.75215
▁روزهای	-9.75298
▁authorities	-9.75341
▁سیاه	-9.75344
▁hath	-9.75412
sk	-9.75517
▁museum	-9.75678
▁داستان	-9.7573
▁استاد	-9.75793
▁تهی	-9.75804
▁گذاشته	-9.75835
▁رفتن	-9.75865
▁joint	-9.75876
▁soul	-9.75922
▁استراحت	-9.76105
▁کدام	-9.76125
▁forces	-9.76163
▁sort	-9.76164
▁safe	-9.76311
▁term	-9.76355
▁کوتاه	-9.76359
ized	-9.76376
▁prices	-9.76496
▁مطالعه	-9.7651
▁موسیقی	-9.7651
▁نکن	-9.76537
▁پوست	-9.76622
▁کان	-9.76655
▁دوستان	-9.76723
▁kill	-9.76739
▁makes	-9.76751
▁اضافی	-9.76904
▁ترکیب	-9.76913
تشر	-9.76919
▁force	-9.76937
▁beach	-9.76966
▁documents	-9.76986
▁مان	-9.77119
son	-9.77236
▁thanks	-9.77247
▁exhibition	-9.77266
▁police	-9.773
▁trust	-9.77354
▁مشتریان	-9.77406
▁نا	-9.77522
▁باش	-9.77582
▁opened	-9.7761
ba	-9.77646
▁شهرهای	-9.7766
▁توصیه	-9.77696
▁مستقل	-9.77698
▁cause	-9.77769
ical	-9.7794
▁عین	-9.77985
▁horse	-9.78067
▁travel	-9.78083
▁کلمات	-9.78095
▁study	-9.78204
▁follow	-9.78274
▁رخ	-9.78312
▁ساله	-9.78348
▁mrs	-9.78384
▁floor	-9.78467
▁سبزیجات	-9.78494
▁ضعیف	-9.78494
▁اسناد	-9.78494
▁mouth	-9.78495
▁سفیر	-9.78495
▁indeed	-9.78497
▁community	-9.78497
▁آهن	-9.78499
▁میدان	-9.78516
▁six	-9.78532
▁سخنان	-9.78583
▁بند	-9.78585
▁گ	-9.7859
▁note	-9.78594
▁کو	-9.78655
▁perfect	-9.7874
▁ball	-9.78844
داری	-9.78896
▁territory	-9.78896
▁presentation	-9.78951
▁count	-9.78952
▁required	-9.78983
دو	-9.79024
▁65	-9.79076
75	-9.79115
▁گو	-9.79166
▁دارایی	-9.79203
▁inter	-9.79216
▁بده	-9.79274
▁prince	-9.79278
▁located	-9.79299
▁sunrise	-9.79299
▁areas	-9.79488
▁انسانی	-9.79622
▁سوریه	-9.7971
▁deal	-9.79729
▁سود	-9.79753
▁نیو	-9.79779
▁code	-9.79833
▁آخر	-9.80045
▁session	-9.8011
▁تاریخی	-9.80128
ot	-9.80146
▁rate	-9.80157
▁concern	-9.80229
▁بگو	-9.80235
▁established	-9.80285
▁happened	-9.80288
▁دیدم	-9.80382
▁measures	-9.80402
▁hey	-9.80405
▁transport	-9.80497
▁science	-9.80508
▁آشنا	-9.80548
▁بگویم	-9.80559
▁plant	-9.80562
▁vegetables	-9.80589
▁drive	-9.80659
▁whose	-9.80697
▁95	-9.80819
▁choose	-9.80929
▁deputy	-9.80929
▁نقشه	-9.80953
▁girl	-9.80963
هایی	-9.80969
▁grand	-9.81092
▁actions	-9.81144
▁فرآیند	-9.81274
▁stood	-9.8134
▁احترام	-9.8134
▁کارکنان	-9.8134
▁داند	-9.81423
▁click	-9.81755
▁submitted	-9.81756
▁pull	-9.81901
▁جوانان	-9.82009
▁دراز	-9.8211
▁bodies	-9.82168
▁video	-9.8217
▁assembly	-9.82179
▁lead	-9.8221
▁quickly	-9.82245
▁72	-9.82285
▁مت	-9.82343
▁presented	-9.82443
▁ذکر	-9.82585
▁double	-9.82585
▁مرتبط	-9.82593
▁wall	-9.82602
▁ضروری	-9.82621
wards	-9.82654
کار	-9.8271
▁forth	-9.82773
op	-9.82808
▁صنعتی	-9.82826
▁آمدند	-9.82841
▁تکان	-9.82894
ho	-9.82901
▁آورده	-9.82903
▁tea	-9.82937
▁kept	-9.83007
▁300	-9.83041
▁village	-9.8306
▁شام	-9.83111
▁build	-9.83134
▁شی	-9.83326
▁غربی	-9.83372
▁بنی	-9.83386
▁وظیفه	-9.83423
gu	-9.83435
▁carried	-9.83454
▁image	-9.83458
▁طلا	-9.83505
▁hi	-9.83545
▁میزان	-9.83577
▁آبی	-9.83601
▁wood	-9.83706
▁اختصاص	-9.83753
▁امت	-9.83764
▁ukrainian	-9.83845
▁جذب	-9.83845
▁r	-9.83846
▁محافظت	-9.83875
▁cold	-9.83922
▁گفتگو	-9.83947
▁بو	-9.83979
▁پایه	-9.84138
▁اینترنت	-9.8418
▁تکمیل	-9.84269
▁فهرست	-9.84269
▁فرودگاه	-9.84277
▁operation	-9.84291
▁type	-9.84315
▁احتمالا	-9.844
▁request	-9.84416
▁buy	-9.84439
کر	-9.84453
▁عزیزم	-9.84489
▁ناگهان	-9.84611
▁فهمید	-9.8462
▁کردی	-9.84675
der	-9.84686
▁passed	-9.84686
▁طبیعت	-9.84695
▁box	-9.84752
▁سهام	-9.84779
▁range	-9.84782
▁sound	-9.84791
▁استان	-9.84796
▁کارگران	-9.84822
▁دقیقا	-9.84826
▁ایستاده	-9.84959
▁develop	-9.84969
▁watch	-9.84982
▁علمی	-9.85016
▁روم	-9.85066
▁either	-9.85122
▁washington	-9.85122
▁remind	-9.85122
▁ارزیاب	-9.85122
▁france	-9.85124
▁movement	-9.85142
▁شبیه	-9.85193
▁search	-9.8526
دن	-9.85317
▁resources	-9.85342
▁75	-9.85349
▁خاصی	-9.85357
▁مرده	-9.85432
▁freedom	-9.85551
▁instead	-9.85551
▁مولداوی	-9.85551
▁واشنگتن	-9.85551
▁گزین	-9.85552
▁شجاعت	-9.85582
▁stage	-9.85602
▁american	-9.85633
▁shot	-9.8567
▁سخنرانی	-9.85735
▁شش	-9.8581
▁lives	-9.85818
▁قرن	-9.85854
▁مصر	-9.85911
▁اتحاد	-9.85966
▁تحلیل	-9.85979
▁perhaps	-9.85982
▁religious	-9.85982
▁written	-9.85982
▁اختیار	-9.8603
▁تام	-9.86055
▁materials	-9.8609
▁نشد	-9.86155
▁fish	-9.86209
▁vi	-9.86234
▁spoke	-9.86346
▁غذایی	-9.86369
▁عملیات	-9.86377
▁major	-9.86394
▁زود	-9.86404
▁تمرکز	-9.86415
▁sorry	-9.86415
▁گویند	-9.86417
▁river	-9.86419
▁planned	-9.86421
▁paid	-9.86427
▁شخصیت	-9.86428
▁lake	-9.86429
▁برادر	-9.8646
▁sons	-9.86486
ally	-9.86488
▁نخواه	-9.86534
▁exist	-9.8654
ac	-9.86572
▁برگشت	-9.86741
▁efforts	-9.86773
▁بدی	-9.86777
▁قرمز	-9.8685
▁سبز	-9.8685
▁سوار	-9.86915
▁fri	-9.86934
▁زیبایی	-9.87097
▁lay	-9.8727
▁jerusalem	-9.87287
▁مشابه	-9.87288
va	-9.873
▁moon	-9.87328
▁مجموع	-9.87347
▁fi	-9.87379
▁po	-9.87384
▁بیست	-9.87384
▁considered	-9.87602
در	-9.87609
▁اعتبار	-9.87667
▁محصول	-9.87686
▁مال	-9.87686
▁belarus	-9.87711
▁herself	-9.87725
▁square	-9.87725
▁ایستگاه	-9.87728
▁bag	-9.87786
▁پوشش	-9.87818
سل	-9.87876
pa	-9.87901
▁گیرند	-9.87987
▁حذف	-9.88166
▁متوقف	-9.88166
▁avoid	-9.88166
▁جهت	-9.88167
▁anyone	-9.88191
▁hair	-9.88191
▁usual	-9.88197
▁application	-9.88221
▁etc	-9.88308
▁شیر	-9.88313
▁informed	-9.88318
91	-9.88324
▁cross	-9.88485
▁egypt	-9.88608
▁computer	-9.88608
▁بقیه	-9.88608
▁ژوئیه	-9.88608
▁medical	-9.88608
▁cat	-9.8861
▁زیست	-9.88616
▁بازسازی	-9.88635
▁boat	-9.88638
▁competition	-9.88666
▁role	-9.88671
▁summer	-9.88675
▁نوشته	-9.8882
▁developed	-9.88895
▁97	-9.89014
▁technology	-9.89053
▁doubt	-9.89053
▁فایل	-9.89083
▁begin	-9.89195
▁bo	-9.89196
▁tax	-9.89303
ئو	-9.8933
▁غل	-9.89379
▁اروپایی	-9.89383
▁پیروزی	-9.89463
▁additional	-9.89465
▁potential	-9.89499
▁اورشلیم	-9.89499
▁عدالت	-9.89499
▁هدایت	-9.89499
▁creation	-9.8951
▁lower	-9.89676
▁نیستند	-9.89719
61	-9.89771
▁born	-9.89891
▁difficult	-9.89937
▁places	-9.89942
▁complex	-9.89947
▁middle	-9.89947
▁برقرار	-9.89948
▁solution	-9.90018
▁موسسه	-9.90028
▁ta	-9.901
▁خودت	-9.90128
▁le	-9.90389
▁مجدد	-9.90398
▁قادر	-9.90398
▁جولای	-9.90398
▁acts	-9.90439
▁arm	-9.90447
con	-9.90495
▁f	-9.90598
▁کشورها	-9.90669
▁راز	-9.90669
زا	-9.9072
▁66	-9.90742
▁maybe	-9.90761
کو	-9.90839
▁participation	-9.9085
▁سابق	-9.9085
▁visa	-9.90888
ists	-9.90956
▁signed	-9.91105
▁مایل	-9.91112
▁ba	-9.91191
ow	-9.91222
▁yerevan	-9.91305
▁انواع	-9.91305
▁انگار	-9.91305
▁ایروان	-9.91305
▁sense	-9.91307
▁افزار	-9.91309
▁unique	-9.91309
▁پنجره	-9.91316
▁فردی	-9.91398
▁professional	-9.91434
▁سهم	-9.91632
▁مانده	-9.91633
▁answered	-9.9166
▁ندارند	-9.91762
▁sa	-9.91766
▁airport	-9.91767
ru	-9.91772
▁بیانیه	-9.91793
▁اصلاحات	-9.91819
▁related	-9.91828
▁till	-9.91856
▁فرماندار	-9.91871
ud	-9.91988
▁تاریکی	-9.92055
bi	-9.92082
▁شرقی	-9.92084
tion	-9.92142
▁مثبت	-9.9222
way	-9.92241
▁مهارت	-9.92256
نه	-9.9226
▁مالیات	-9.92359
آ	-9.9246
▁ex	-9.92543
نت	-9.9258
▁fair	-9.92587
▁عجیب	-9.9262
▁ا	-9.92622
▁progress	-9.9267
▁صندلی	-9.92681
▁mine	-9.92694
▁درمان	-9.92788
▁تحمل	-9.92798
▁serve	-9.92807
▁یهودیان	-9.92819
▁منحصر	-9.92933
▁cases	-9.92956
▁نیمه	-9.92997
▁ko	-9.93116
po	-9.93124
▁بحران	-9.93144
ya	-9.93149
▁مبلغ	-9.93182
▁rock	-9.93239
▁sector	-9.93244
▁ری	-9.93274
▁station	-9.93322
▁سالن	-9.93325
▁بیماری	-9.93335
les	-9.93342
▁بروم	-9.9337
مت	-9.9339
▁ملت	-9.93458
▁96	-9.93512
▁ذخیره	-9.93609
▁متوسط	-9.93609
▁پایتخت	-9.93609
▁cover	-9.93624
j	-9.93645
▁da	-9.9365
▁couldn	-9.93657
▁message	-9.93716
▁guests	-9.93835
▁زند	-9.9384
▁industrial	-9.94036
▁product	-9.94065
▁ندارم	-9.94077
▁performance	-9.9408
▁spiritual	-9.94083
▁چاپ	-9.94109
▁انداخت	-9.9411
▁evening	-9.94149
سازی	-9.94174
▁sleep	-9.94255
▁sub	-9.94354
dy	-9.94368
▁اجاره	-9.94546
▁lining	-9.94548
▁staff	-9.94548
▁67	-9.94569
▁نکنید	-9.94588
▁روزنامه	-9.94623
▁مور	-9.94662
▁approach	-9.94684
▁sir	-9.94685
▁برنده	-9.94831
▁demand	-9.94859
▁کشی	-9.94942
▁clean	-9.94953
▁مهمان	-9.95011
▁ادوارد	-9.95018
▁نمونه	-9.95018
▁فیلیپ	-9.95019
▁sit	-9.9503
▁offering	-9.95033
▁موسی	-9.95053
▁sha	-9.95061
▁یکدیگر	-9.95063
▁بنیاد	-9.95071
▁base	-9.95097
▁گوشت	-9.95123
▁بن	-9.95156
▁du	-9.95372
اف	-9.9539
▁mass	-9.95442
▁forecast	-9.95492
▁بیایید	-9.95493
▁جنوب	-9.95508
▁خشک	-9.95533
▁توانستم	-9.9554
▁چربی	-9.95553
min	-9.95646
▁cl	-9.95682
ab	-9.95702
▁expected	-9.95743
▁امیدوار	-9.95749
▁leaders	-9.95784
وقت	-9.95809
▁سرد	-9.95841
کن	-9.95919
▁waiting	-9.95923
▁پرواز	-9.95993
▁جاری	-9.96015
si	-9.96054
▁ملک	-9.96063
▁فر	-9.96113
▁apartments	-9.96135
▁بدتر	-9.9619
سلطان	-9.9626
ev	-9.96319
رک	-9.96398
مه	-9.9644
▁florida	-9.96446
▁اینطور	-9.96447
▁elector	-9.96458
جا	-9.96625
▁ho	-9.96671
▁jo	-9.96707
▁director	-9.96755
▁arms	-9.9685
▁penn	-9.96909
▁ad	-9.9692
▁defense	-9.96927
▁location	-9.96927
▁فعلی	-9.96927
▁فلوریدا	-9.96927
▁نخست	-9.96932
▁محدود	-9.97014
▁effect	-9.97052
▁کارخانه	-9.97069
ny	-9.97074
▁برمی	-9.97179
▁details	-9.9722
▁deep	-9.97231
▁test	-9.97247
▁قرارداد	-9.97327
▁opening	-9.97346
▁کر	-9.97402
▁pool	-9.97419
▁secretary	-9.97425
▁تی	-9.97427
▁nice	-9.9744
ai	-9.97539
▁مقابل	-9.97572
▁کلاس	-9.97595
▁card	-9.9762
▁86	-9.97662
▁قبلی	-9.97665
▁پدرش	-9.97694
▁مجاز	-9.97892
▁آنلاین	-9.97897
▁star	-9.97902
▁boss	-9.97903
▁paul	-9.97938
▁houses	-9.97941
بو	-9.97964
▁شماست	-9.98054
▁imp	-9.98072
▁sight	-9.98084
▁path	-9.98102
▁letter	-9.98125
▁چ	-9.98168
دان	-9.98179
▁killed	-9.98237
▁گویی	-9.98261
▁تهدید	-9.98334
▁افتخار	-9.98383
▁عجله	-9.98383
▁bread	-9.98388
▁ظرفیت	-9.98391
▁روسای	-9.98396
▁شو	-9.98424
gan	-9.98483
▁زنگ	-9.98515
▁fast	-9.98568
▁regions	-9.98593
▁expressed	-9.98614
▁بهشت	-9.98623
▁پسران	-9.98624
▁رسانی	-9.98712
ینگ	-9.98794
▁worth	-9.98866
▁labor	-9.98872
▁almaty	-9.98874
▁تعجب	-9.98874
▁حجم	-9.98874
▁قلمرو	-9.98875
▁foot	-9.98964
tr	-9.98975
▁سالانه	-9.99006
▁sign	-9.99053
▁doesn	-9.99088
▁کت	-9.99215
▁entire	-9.99234
کل	-9.99259
▁یهودی	-9.99314
▁انتشار	-9.99317
▁نصب	-9.99366
▁مواجه	-9.99374
▁آهنگ	-9.99378
▁خاک	-9.99416
▁ne	-9.9942
▁رویدادهای	-9.99472
▁چای	-9.9948
که	-9.99688
▁challenges	-9.9972
▁simple	-9.99861
▁آلماتی	-9.99861
▁شیطان	-9.99861
sylvan	-9.99863
ber	-9.99881
▁playing	-9.99987
ره	-10
▁street	-10.0003
▁protect	-10.0006
▁heads	-10.0017
ite	-10.0022
▁ice	-10.0024
▁credit	-10.0036
▁battle	-10.0036
▁edward	-10.0036
▁آی	-10.0038
▁suddenly	-10.0039
▁improve	-10.0041
▁78	-10.0042
▁بیاید	-10.0045
▁اصل	-10.0046
سکی	-10.0047
▁کلام	-10.0049
▁network	-10.0053
▁online	-10.0056
▁shown	-10.0057
▁غرب	-10.0057
▁ahead	-10.0058
▁bear	-10.0064
▁مهر	-10.0067
▁reached	-10.0073
▁rule	-10.0077
▁دوش	-10.0078
em	-10.0079
▁رساند	-10.008
▁author	-10.0083
▁nursul	-10.0086
▁cereals	-10.0086
▁آشپزخانه	-10.0086
▁framework	-10.0086
▁garden	-10.0086
▁معنی	-10.0087
▁hall	-10.0089
▁فرستاد	-10.0092
▁افتاده	-10.0103
▁پذیرش	-10.0105
▁gr	-10.0113
▁قهرمان	-10.012
▁condition	-10.0125
▁آر	-10.0127
▁نداد	-10.0132
▁walking	-10.0134
▁turkey	-10.0136
▁moses	-10.0136
▁پذیرفت	-10.0139
▁آزمایش	-10.0142
▁رقابت	-10.0143
▁em	-10.0144
▁نیستم	-10.0152
▁jews	-10.016
▁ابرا	-10.0163
اق	-10.0164
▁درس	-10.0173
▁ساکن	-10.0176
▁afraid	-10.0187
▁resolution	-10.0187
▁technologies	-10.0187
▁listen	-10.0187
▁بگیرم	-10.0197
fi	-10.0198
▁روزی	-10.02
▁secret	-10.0203
▁conflict	-10.0205
▁ماهی	-10.0209
mi	-10.021
kh	-10.0218
▁seek	-10.0223
▁enter	-10.0233
and	-10.0234
▁اشتراک	-10.0237
▁بریتانیا	-10.0237
▁پنسیلوانیا	-10.0237
▁اراد	-10.0237
▁تحویل	-10.0239
▁کشیده	-10.0243
▁requirements	-10.0247
▁فرصتی	-10.0248
▁کلیدی	-10.0248
▁سوالات	-10.0251
▁charge	-10.0252
▁موضوعات	-10.0259
▁رهبران	-10.026
▁institutions	-10.0267
▁joy	-10.0269
▁youth	-10.0269
▁changed	-10.0269
▁rules	-10.0271
▁ار	-10.0279
▁ایشان	-10.0283
▁تشکر	-10.0288
▁تفاوت	-10.0288
▁رستوران	-10.0288
▁اصول	-10.0292
▁fund	-10.0301
▁se	-10.0308
▁کیف	-10.031
▁کلیسا	-10.0318
▁بل	-10.0318
▁مخالف	-10.032
▁exchange	-10.0329
▁بعدا	-10.033
▁وظایف	-10.034
▁بگوید	-10.0344
▁ارتباطات	-10.0347
bo	-10.0348
▁پایدار	-10.035
▁rain	-10.0351
بان	-10.0355
▁cast	-10.0355
▁continued	-10.0363
000	-10.037
▁لعنتی	-10.0372
▁length	-10.0391
▁presence	-10.0391
▁blue	-10.0391
▁خواستم	-10.0395
▁immediately	-10.0398
ure	-10.04
▁judge	-10.0401
▁sc	-10.0404
ng	-10.0405
▁speaking	-10.0406
▁احساسات	-10.0418
▁direct	-10.0432
▁win	-10.0435
▁environment	-10.0436
▁کا	-10.0442
▁influence	-10.0443
▁volume	-10.0443
▁حاوی	-10.0443
▁منبع	-10.0443
▁سربازان	-10.0451
▁مدل	-10.0462
▁مذهبی	-10.0467
▁iran	-10.0473
▁495	-10.0475
▁برداری	-10.0479
▁mountain	-10.0483
▁وزن	-10.0485
▁قایق	-10.0495
▁similar	-10.0495
▁جایگزین	-10.0495
▁basic	-10.0496
▁جی	-10.0498
▁نحوه	-10.0501
▁ساکنان	-10.0507
▁included	-10.0509
▁ضربه	-10.0519
▁expect	-10.052
▁پو	-10.0527
فی	-10.0528
▁خواند	-10.054
▁lu	-10.0546
▁campaign	-10.0547
▁امتحان	-10.0547
▁برجسته	-10.0547
▁cried	-10.0548
▁جایزه	-10.0548
▁کشف	-10.0549
▁ریسک	-10.0549
▁fully	-10.0552
▁نفره	-10.0555
▁lift	-10.0558
▁offers	-10.056
▁جام	-10.0566
▁association	-10.0571
▁armed	-10.058
▁دیگه	-10.0582
▁92	-10.0586
▁extra	-10.0586
▁فرم	-10.0587
▁serious	-10.0587
تقل	-10.0588
▁امتیاز	-10.0595
▁scientific	-10.06
▁حفاظت	-10.06
▁تکرار	-10.06
▁سالگرد	-10.06
▁chairman	-10.0601
▁77	-10.0603
▁استخر	-10.0604
▁include	-10.0605
سو	-10.0605
▁completely	-10.0618
▁remain	-10.0619
▁ببینم	-10.0625
▁دروغ	-10.0641
za	-10.0643
▁ابزار	-10.0645
▁facilities	-10.0653
▁husband	-10.0653
▁glad	-10.0653
▁جزیره	-10.0653
▁importance	-10.0653
▁talking	-10.0654
▁sitting	-10.0654
▁lady	-10.0656
▁اصلا	-10.0656
▁cup	-10.0658
▁موافقت	-10.0659
ندیان	-10.0674
▁doctor	-10.0676
▁کشته	-10.0677
▁ka	-10.0682
▁هوای	-10.0687
▁دوران	-10.0694
▁نیروی	-10.0701
▁opportunities	-10.0706
▁yahweh	-10.0706
▁تشخیص	-10.0706
▁مفهوم	-10.0706
▁philip	-10.0706
▁رودخانه	-10.0708
▁جلوی	-10.0709
▁درجه	-10.0709
▁داشتن	-10.0714
▁directly	-10.072
جو	-10.0725
پا	-10.0729
▁صورتی	-10.0735
▁add	-10.0737
▁leader	-10.0739
سوس	-10.0739
▁ways	-10.0747
▁tour	-10.0749
▁welcome	-10.0755
▁finish	-10.0756
▁تمایل	-10.076
▁ch	-10.0762
▁بروید	-10.0769
ig	-10.077
▁پارلمان	-10.0773
▁آم	-10.0783
▁camp	-10.0785
ina	-10.0794
▁pi	-10.0796
▁دریایی	-10.0797
▁مشتری	-10.0799
mb	-10.08
▁اخیر	-10.0802
▁ideas	-10.0804
ub	-10.0807
▁هسته	-10.0812
ions	-10.0812
▁domestic	-10.0813
▁independent	-10.0813
▁ادغام	-10.0813
▁قضاوت	-10.0813
▁stock	-10.0813
▁عصر	-10.0813
▁درگیری	-10.0817
▁میشی	-10.0817
ring	-10.0821
▁milk	-10.0821
▁pe	-10.0823
▁فرانسوی	-10.0823
▁زنی	-10.0825
▁seat	-10.0844
▁آمریکایی	-10.0848
ونا	-10.085
▁بس	-10.0856
اش	-10.0862
▁sports	-10.0863
▁تعدادی	-10.0864
▁simply	-10.0868
▁story	-10.0868
▁دریاچه	-10.0875
▁شناسی	-10.0878
▁managed	-10.0879
▁خصوص	-10.0883
▁امکانات	-10.0883
▁آگاه	-10.0887
الی	-10.0895
▁thinking	-10.0898
▁تیر	-10.0898
▁فردا	-10.0914
▁fl	-10.092
▁active	-10.092
▁transfer	-10.0922
▁kitchen	-10.0922
▁دکمه	-10.0922
▁speed	-10.0922
▁نابود	-10.0922
▁میلی	-10.0923
▁عامل	-10.093
▁حلق	-10.093
▁ایوان	-10.0932
▁nights	-10.0946
▁games	-10.0956
▁leading	-10.096
▁returned	-10.0975
▁across	-10.0977
▁نعلب	-10.0977
▁قرقیزستان	-10.0977
▁هیجان	-10.0977
▁شناسایی	-10.0977
▁administration	-10.0978
▁justice	-10.098
▁مد	-10.0985
ns	-10.0988
▁weight	-10.0993
▁mission	-10.0998
▁شرق	-10.1002
▁statement	-10.1017
▁کره	-10.102
▁file	-10.1025
▁rise	-10.1026
طرح	-10.1028
wa	-10.1029
او	-10.1029
▁glory	-10.1031
▁baby	-10.1032
▁موسسات	-10.1033
▁authority	-10.1034
▁افکار	-10.1034
▁tv	-10.1039
▁ab	-10.1043
جایی	-10.1048
▁prepared	-10.1049
lan	-10.1052
▁accept	-10.1056
ko	-10.1057
▁servant	-10.1059
▁conduct	-10.1059
▁minute	-10.1059
the	-10.1064
▁includes	-10.107
▁مع	-10.1077
1	-10.108
▁hotels	-10.1084
▁capacity	-10.1087
▁زمزمه	-10.1087
▁زحمت	-10.1087
▁software	-10.1087
▁انتخاباتی	-10.1099
▁تحقیقات	-10.1107
▁opinion	-10.1115
▁priest	-10.1115
▁پادشاهی	-10.1129
▁died	-10.1131
▁چهارم	-10.1135
▁former	-10.1136
▁pain	-10.1139
فاصله	-10.1139
▁strengthen	-10.114
▁leaving	-10.1142
▁grace	-10.1142
▁کنگره	-10.1142
رس	-10.1145
iah	-10.1149
▁بودیم	-10.1151
▁فراتر	-10.1151
▁بارها	-10.1153
▁تری	-10.1155
tro	-10.116
▁تولد	-10.117
▁strength	-10.1172
▁interests	-10.1172
▁guest	-10.1172
▁led	-10.1174
▁عهده	-10.1177
▁2020	-10.1187
▁compare	-10.1192
▁steps	-10.1192
▁76	-10.1196
▁criminal	-10.1198
▁امسال	-10.1198
▁ترجمه	-10.1198
▁فنلاند	-10.1198
▁speech	-10.1198
▁منافع	-10.1198
▁truly	-10.1198
▁website	-10.1198
▁treatment	-10.1199
▁victory	-10.12
▁prime	-10.12
▁شنید	-10.1203
رت	-10.1204
▁مستقیما	-10.1215
▁wine	-10.1216
▁asia	-10.1221
▁نگرانی	-10.1223
▁daughter	-10.1227
▁نیم	-10.1231
▁باران	-10.1233
▁tough	-10.1248
▁98	-10.1251
▁حاصل	-10.1254
▁شراب	-10.1255
▁throughout	-10.1256
ron	-10.1258
▁lo	-10.1259
▁دین	-10.1263
چسب	-10.1269
▁دانیم	-10.1269
▁دشوار	-10.1274
▁nine	-10.1277
▁contract	-10.1284
▁خرد	-10.1284
▁برگزاری	-10.1285
▁nation	-10.1287
▁شنیده	-10.1293
ner	-10.1293
▁همسر	-10.1302
▁چیزها	-10.1305
gen	-10.1308
▁محکوم	-10.1309
▁دیوار	-10.131
▁جلسات	-10.1311
▁مقررات	-10.1314
▁paris	-10.1323
▁ورزش	-10.1329
▁تلویزیون	-10.133
▁چوب	-10.1331
▁fa	-10.1335
داد	-10.1341
▁خراب	-10.1343
av	-10.1344
▁prevent	-10.1365
▁choice	-10.1368
▁طوفان	-10.1368
▁جالب	-10.1368
▁اوراق	-10.1368
▁رتبه	-10.1368
▁safety	-10.1369
▁نگهداری	-10.1369
▁reality	-10.1374
▁ساختار	-10.1375
▁تعمیر	-10.1376
▁آموزان	-10.138
▁parts	-10.138
▁understanding	-10.1387
▁train	-10.1388
ging	-10.139
ap	-10.1398
▁takes	-10.1402
▁thoughts	-10.1407
▁گام	-10.1408
▁original	-10.1409
▁خواندن	-10.1412
▁2000	-10.1419
per	-10.1423
▁physical	-10.1425
▁vladimir	-10.1425
▁ولادیمیر	-10.1425
▁balance	-10.1425
▁decisions	-10.1428
▁دهندگان	-10.1433
چی	-10.144
▁چپ	-10.1444
▁73	-10.1445
▁گذشت	-10.1449
▁دشمن	-10.1453
▁di	-10.1461
▁هوایی	-10.1472
زل	-10.1476
▁رعای	-10.1482
▁nalbandian	-10.1482
▁رضایت	-10.1482
▁اوهایو	-10.1482
▁دلایل	-10.1483
▁94	-10.1495
▁laws	-10.1498
▁deliver	-10.1503
▁chair	-10.1506
▁parents	-10.1507
▁ones	-10.1514
▁task	-10.1516
▁none	-10.1516
وز	-10.1522
▁moldova	-10.1529
▁استاندارد	-10.1535
▁مست	-10.1535
▁struggle	-10.154
▁حبوبات	-10.154
▁خشونت	-10.154
▁پخش	-10.154
▁track	-10.154
▁دقت	-10.1541
▁ohio	-10.1541
▁ایمیل	-10.1545
▁62	-10.1551
▁dec	-10.1553
▁بهداشتی	-10.1555
ik	-10.1558
▁usa	-10.1563
▁چشمانش	-10.1564
▁علم	-10.1569
▁machine	-10.1572
رغ	-10.1574
▁400	-10.1581
ep	-10.1582
▁provides	-10.1584
▁iron	-10.1586
▁سگ	-10.1595
▁hell	-10.1596
▁موقع	-10.1597
▁congress	-10.1598
▁distance	-10.1598
▁ثبات	-10.1598
▁ویرجینیا	-10.1598
▁پرولتاریا	-10.1598
▁worship	-10.1598
▁virginia	-10.1599
▁متن	-10.16
▁ش	-10.1601
▁require	-10.1605
▁بدهد	-10.1608
▁یو	-10.1609
que	-10.1615
بل	-10.162
کلیک	-10.1623
ities	-10.1625
▁practice	-10.1632
ville	-10.1639
بار	-10.1644
▁except	-10.1644
▁سیل	-10.1651
red	-10.1653
▁draft	-10.1657
▁finance	-10.1657
▁جلال	-10.1657
▁drop	-10.1658
▁ناتو	-10.1658
ek	-10.1672
▁ga	-10.1674
▁express	-10.1677
▁دا	-10.1677
تس	-10.1682
▁85	-10.1685
▁cha	-10.169
▁آگاهی	-10.1699
▁meetings	-10.1702
▁نامزد	-10.1706
▁داره	-10.1708
iv	-10.1708
قابل	-10.1709
یسم	-10.171
▁برادران	-10.1714
▁write	-10.1715
▁legislation	-10.1715
▁universe	-10.1715
▁رژیم	-10.1715
▁version	-10.1716
▁preparation	-10.1716
▁legum	-10.1716
▁هند	-10.1719
▁خشم	-10.172
▁race	-10.1722
رن	-10.1736
▁points	-10.1739
▁مطمئنا	-10.1743
اژ	-10.1746
▁درستی	-10.1747
▁سند	-10.1749
▁موثر	-10.175
ley	-10.1751
▁لطف	-10.1763
▁recent	-10.1764
▁poems	-10.1772
▁مسئول	-10.1773
▁quarter	-10.1775
▁اوراسیا	-10.1775
▁لهستان	-10.1775
▁آگوست	-10.1775
▁pressure	-10.1776
▁collection	-10.1779
▁دارو	-10.1782
▁طیف	-10.1783
▁mich	-10.1783
▁tree	-10.1786
▁عمر	-10.1797
ize	-10.1798
▁سفارش	-10.18
▁books	-10.18
▁pan	-10.1805
▁ar	-10.1806
▁focus	-10.1806
▁اطلاعاتی	-10.1811
▁صادر	-10.1813
▁gain	-10.1814
▁prayer	-10.1817
▁83	-10.182
▁دریای	-10.1821
▁smile	-10.1823
▁roll	-10.1828
▁model	-10.1828
▁inside	-10.1831
▁اکثر	-10.1833
▁چیه	-10.1833
▁century	-10.1834
▁تشویق	-10.1834
▁constant	-10.1834
▁western	-10.1835
▁کردید	-10.1835
▁winter	-10.1835
▁web	-10.1837
▁گشت	-10.1837
▁پیچیده	-10.1844
han	-10.1848
▁burn	-10.1852
▁درخت	-10.1855
▁راهی	-10.1855
▁export	-10.1871
▁christian	-10.1874
فر	-10.1893
▁families	-10.1894
▁مذاکرات	-10.1894
▁خسته	-10.1894
▁convention	-10.1894
▁ناشی	-10.1894
▁سرنوشت	-10.1895
▁صادرات	-10.1899
▁actually	-10.1901
▁holding	-10.1906
▁عادی	-10.1907
▁82	-10.1908
▁تماشا	-10.191
▁رسیدگی	-10.191
▁جنسی	-10.1914
▁درگیر	-10.1922
▁bathroom	-10.1932
▁standard	-10.1933
▁مند	-10.1935
▁آموز	-10.1942
▁nuts	-10.1942
▁برخورد	-10.195
▁احمق	-10.1951
▁positive	-10.1954
▁آدرس	-10.1954
▁دروازه	-10.1954
▁غنی	-10.1955
▁شرط	-10.1955
▁drink	-10.1963
▁ببین	-10.1964
▁شان	-10.1967
▁draw	-10.1979
▁min	-10.1989
▁color	-10.199
▁تاریک	-10.199
▁holiday	-10.1993
▁bull	-10.1997
▁honor	-10.2009
▁استراتژی	-10.2011
▁مکانی	-10.2011
▁مربوطه	-10.2014
▁supply	-10.2015
▁تاجیکستان	-10.2015
▁معنوی	-10.2015
▁کارولینا	-10.2015
▁jewish	-10.2015
▁ساکت	-10.2015
▁خالی	-10.2016
▁season	-10.2017
▁یهودا	-10.2021
یون	-10.2023
وب	-10.2031
▁ایستاد	-10.2032
▁sp	-10.2035
▁starting	-10.2039
▁63	-10.2039
▁فوری	-10.2039
▁entered	-10.2048
ایل	-10.206
▁پار	-10.2075
▁cant	-10.2075
▁carolina	-10.2076
▁مفید	-10.2076
▁سکوت	-10.2076
▁لنین	-10.2076
▁registration	-10.2076
▁بتواند	-10.2078
▁آزار	-10.2079
▁عوض	-10.2081
▁خورده	-10.2086
▁attack	-10.2088
▁باشی	-10.2097
▁بگذار	-10.2099
▁عهد	-10.21
▁مار	-10.2102
▁syria	-10.2108
▁carry	-10.2111
▁concept	-10.2111
بری	-10.2113
▁host	-10.2119
▁costs	-10.2119
▁payment	-10.2119
▁greater	-10.2131
▁گاو	-10.2136
▁institute	-10.2137
▁شمشیر	-10.2137
▁معتبر	-10.2137
▁قالب	-10.2137
▁lenin	-10.2137
▁شدیم	-10.214
ang	-10.2142
▁ship	-10.2143
▁ثانیه	-10.2146
ash	-10.2147
▁150	-10.2149
ability	-10.215
ستان	-10.2158
▁الکترونیکی	-10.2161
▁picture	-10.2178
▁ایمنی	-10.2191
▁غ	-10.2198
▁specific	-10.2199
▁anniversary	-10.2199
▁استقلال	-10.2199
▁عبارت	-10.2199
▁نظم	-10.2199
▁ماموریت	-10.2199
▁اک	-10.22
▁partners	-10.22
دام	-10.2203
▁سرخ	-10.2221
▁93	-10.2224
▁skills	-10.2232
▁comp	-10.2234
▁religion	-10.224
▁weeks	-10.2245
پی	-10.2246
▁bath	-10.2247
▁effective	-10.2247
▁64	-10.2248
ill	-10.225
▁جمعی	-10.2251
▁trouble	-10.2257
▁hague	-10.2261
▁تصاویر	-10.2261
▁لغو	-10.2261
▁مطالب	-10.2261
▁planning	-10.2261
▁crisis	-10.2261
▁لاهه	-10.2261
▁پاریس	-10.2262
▁ان	-10.2263
▁حیوانات	-10.2264
▁پای	-10.2268
▁agreed	-10.227
▁فل	-10.2273
▁1393	-10.2275
und	-10.2278
▁آرامی	-10.2279
▁aimed	-10.2283
▁sides	-10.2292
▁desire	-10.2292
▁window	-10.2304
halt	-10.2314
▁standing	-10.2316
دم	-10.2317
igan	-10.2318
▁چنان	-10.2324
▁surface	-10.2324
▁accordance	-10.2324
جانبه	-10.2324
▁fax	-10.2324
▁مدنی	-10.2325
وح	-10.2326
▁whatever	-10.2329
تیا	-10.233
اند	-10.2332
tra	-10.2336
kin	-10.2337
▁سیم	-10.234
▁ورودی	-10.2346
▁ya	-10.2348
▁سلامت	-10.2349
▁soldiers	-10.235
▁معمولی	-10.235
رسی	-10.235
▁grow	-10.2351
▁پرست	-10.2351
▁جنگل	-10.2355
▁representative	-10.2367
▁مراقب	-10.2371
▁گران	-10.2377
▁مرتب	-10.2385
▁responsibility	-10.2386
▁tajikistan	-10.2386
▁مقاله	-10.2386
▁وسایل	-10.2387
▁رنج	-10.2387
▁experts	-10.2388
▁فرمان	-10.2397
▁z	-10.2406
▁normal	-10.2407
▁نظرات	-10.241
▁servants	-10.2418
▁شعر	-10.2418
▁ver	-10.2422
▁peter	-10.2423
فا	-10.2425
▁نتوانست	-10.2426
▁طرفین	-10.2432
zh	-10.2434
▁happen	-10.2437
▁گروهی	-10.2439
▁چرخ	-10.2439
▁وام	-10.2445
▁peoples	-10.2449
▁writing	-10.245
▁نکته	-10.245
▁internal	-10.245
▁storm	-10.245
▁flesh	-10.245
▁percent	-10.245
▁prize	-10.2452
▁بگذارید	-10.2453
▁مهمانی	-10.2455
لان	-10.2456
▁صحنه	-10.2458
▁historical	-10.2458
▁mm	-10.2464
▁mor	-10.2472
▁fun	-10.2475
▁68	-10.2483
▁cry	-10.2488
▁schools	-10.2489
▁content	-10.2494
▁سنگین	-10.2498
▁نزدیکی	-10.2511
▁اشعار	-10.2513
▁داوود	-10.2513
▁popular	-10.2513
▁شریک	-10.2515
▁warm	-10.2517
▁highest	-10.2525
▁گفتن	-10.2534
he	-10.2535
ier	-10.2544
▁pray	-10.2544
▁prove	-10.2549
ence	-10.2553
▁bill	-10.2559
▁previous	-10.2564
▁achieve	-10.2571
▁سوخت	-10.2577
▁independence	-10.2578
▁employment	-10.2578
▁bright	-10.2578
▁club	-10.2578
▁پوکر	-10.2578
▁سپرده	-10.2579
▁خنده	-10.258
▁محدودیت	-10.258
▁فکس	-10.2581
▁involved	-10.2581
▁manner	-10.2583
▁انگیزه	-10.2593
▁dollars	-10.2597
▁leg	-10.26
بستگی	-10.2601
▁نیازهای	-10.2605
▁نی	-10.2607
▁وسی	-10.2613
▁establish	-10.2613
▁الی	-10.2614
▁زندان	-10.2616
▁مسیحی	-10.263
▁آسیای	-10.2633
ily	-10.2634
▁hospital	-10.264
▁increasing	-10.2642
▁ترجیح	-10.2642
▁تقسیم	-10.2642
▁زیرساخت	-10.2642
▁نادیده	-10.2642
▁پترزبورگ	-10.2642
▁اولویت	-10.2642
▁poker	-10.2642
▁eight	-10.2643
ping	-10.2643
▁revolutionary	-10.2645
▁جواب	-10.2647
▁دم	-10.2647
▁announced	-10.2647
▁port	-10.2648
▁انقلابی	-10.2649
▁گذاران	-10.2654
▁پوش	-10.2657
▁mentioned	-10.2658
nce	-10.2661
▁بینم	-10.2664
▁particularly	-10.2665
▁goes	-10.2668
▁دهه	-10.2669
▁مهمانان	-10.267
ey	-10.2671
qu	-10.2674
▁followed	-10.2687
▁investments	-10.269
▁معدنی	-10.2691
▁ju	-10.2693
▁interested	-10.2697
▁separate	-10.2702
▁marriage	-10.2707
▁probably	-10.2707
▁spread	-10.2707
▁average	-10.2707
▁بیمارستان	-10.2707
گن	-10.2707
▁میدونی	-10.2709
▁players	-10.2709
▁کد	-10.2711
▁84	-10.2721
▁ja	-10.2722
▁dr	-10.2731
▁tons	-10.2739
▁developing	-10.2751
▁seeing	-10.2758
▁correct	-10.2762
▁map	-10.2765
▁piece	-10.2767
▁سلاح	-10.2772
▁مسئله	-10.2772
▁واضح	-10.2772
▁giving	-10.2772
▁طعم	-10.2772
▁گردشگری	-10.2772
▁petersburg	-10.2772
▁kiss	-10.2773
▁infrastructure	-10.2773
▁broke	-10.2774
aith	-10.2775
▁خم	-10.2777
▁جنبه	-10.2777
▁درون	-10.2788
▁saved	-10.2791
▁اوست	-10.2812
▁شاد	-10.2817
▁74	-10.2826
tor	-10.2828
▁besides	-10.2828
▁units	-10.2829
▁تصمیمات	-10.2832
▁aliyev	-10.2833
▁sword	-10.2838
▁twenty	-10.2838
▁اعتراف	-10.2838
▁والدین	-10.2838
▁status	-10.2839
▁votes	-10.2841
▁تنهایی	-10.2848
▁har	-10.2849
▁determined	-10.2851
▁عاشق	-10.2854
▁آقا	-10.2858
▁hill	-10.2866
▁آلا	-10.2872
au	-10.2872
رون	-10.2873
▁مرز	-10.2879
▁lived	-10.2885
ating	-10.2887
▁allowed	-10.2889
▁seems	-10.2895
▁interesting	-10.2897
▁ماهه	-10.2898
▁beyond	-10.2904
▁chamber	-10.2904
▁memory	-10.2904
▁تعریف	-10.2904
▁قهوه	-10.2904
▁نمایندگی	-10.2904
▁practical	-10.2904
▁partnership	-10.2905
▁caught	-10.2905
▁assistance	-10.2905
▁ran	-10.2908
ler	-10.2912
▁goods	-10.2916
lin	-10.2917
▁knows	-10.2917
▁1388	-10.2917
▁film	-10.2918
▁organized	-10.2921
▁مشاوره	-10.2925
▁pick	-10.2936
▁destroy	-10.2943
▁مون	-10.2952
▁اتفاقی	-10.2952
▁text	-10.2954
▁quiet	-10.2958
▁significant	-10.2958
▁میل	-10.2966
▁تاسیس	-10.2966
▁opposition	-10.2971
▁بماند	-10.2972
▁آدم	-10.2973
▁دانند	-10.2975
▁سیتی	-10.2975
▁دیدگاه	-10.2976
▁بگذارد	-10.2978
▁forget	-10.2982
▁breath	-10.2982
▁published	-10.2986
▁گذار	-10.2987
▁شر	-10.299
▁کنونی	-10.2991
▁bush	-10.2992
▁consist	-10.3002
ify	-10.3022
▁direction	-10.3025
▁wed	-10.3031
▁chinese	-10.3038
▁wild	-10.3038
▁style	-10.3038
▁رشته	-10.3038
▁ارمنی	-10.3039
▁majority	-10.3041
▁زودتر	-10.3042
▁cool	-10.3042
ذ	-10.3044
ward	-10.3044
▁command	-10.3056
▁بال	-10.307
▁explain	-10.3078
▁آلمانی	-10.3083
▁wants	-10.3084
▁مک	-10.3092
▁dog	-10.3095
غذی	-10.3095
coming	-10.3102
▁occasion	-10.3105
▁target	-10.3106
▁القدس	-10.3106
▁تقاضا	-10.3106
▁یوحنا	-10.3106
▁proving	-10.3106
▁تمیز	-10.3106
▁bridge	-10.3106
▁settlement	-10.3106
▁gives	-10.3107
▁مداوم	-10.3107
▁کشد	-10.3108
▁aliyeva	-10.3111
▁کول	-10.3111
▁calm	-10.3112
▁مجازات	-10.3112
▁trip	-10.3116
▁su	-10.3123
▁ah	-10.3128
▁worked	-10.3128
▁didnt	-10.3132
▁match	-10.3133
▁depend	-10.3136
▁مدتی	-10.314
▁loss	-10.315
▁شوی	-10.3157
▁آیند	-10.3157
▁communication	-10.3159
▁showing	-10.3159
کوف	-10.3165
▁peaceful	-10.3166
az	-10.317
▁straight	-10.3174
▁برخاست	-10.3174
▁فساد	-10.3174
▁sweet	-10.3174
▁دردسر	-10.3174
شون	-10.3174
▁نقره	-10.3175
▁تحریک	-10.3175
ified	-10.3175
▁ارگان	-10.3176
▁flow	-10.3177
ology	-10.3187
▁متاسفم	-10.3191
▁record	-10.32
▁ti	-10.3209
▁je	-10.3213
▁gu	-10.3214
▁مهربان	-10.3217
▁document	-10.3224
▁border	-10.3228
▁spring	-10.3228
▁زمینی	-10.3236
▁اعتقاد	-10.3237
▁parking	-10.3239
▁ارتفاع	-10.3242
ilateral	-10.3242
▁electronic	-10.3242
▁grain	-10.3243
▁stated	-10.3246
▁یخ	-10.3247
▁nail	-10.3248
ran	-10.3249
fa	-10.325
▁lines	-10.3255
اپ	-10.3267
▁شهری	-10.3271
وپ	-10.3273
▁drawing	-10.3275
▁بدهم	-10.3277
▁دستگیر	-10.3278
▁funds	-10.3285
▁ناراحت	-10.3287
ویل	-10.3293
▁sphere	-10.3297
▁source	-10.3297
▁surprise	-10.33
▁programs	-10.3301
ینا	-10.3308
▁مسلح	-10.3308
▁breakfast	-10.3311
▁laid	-10.3314
▁اداری	-10.3317
▁کارشناسان	-10.3317
▁ببیند	-10.3319
▁customers	-10.3319
▁دستش	-10.3319
▁wouldn	-10.332
▁adopted	-10.3322
▁fe	-10.3326
▁dry	-10.3328
▁completed	-10.3334
▁closed	-10.3338
▁forms	-10.3339
ped	-10.3354
▁cards	-10.3361
▁شاهد	-10.3362
▁گوشه	-10.3368
▁عمدت	-10.3374
sky	-10.3375
▁sister	-10.3376
▁devil	-10.3381
▁judgment	-10.3381
▁آثار	-10.3381
▁شهادت	-10.3381
▁مشغول	-10.3381
▁agency	-10.3381
▁رقص	-10.3381
▁eurasia	-10.3381
▁ادوی	-10.3382
▁lack	-10.3383
▁مانع	-10.3387
▁broken	-10.3388
▁دیوانه	-10.3394
▁bi	-10.3395
▁realiz	-10.3399
▁صبحانه	-10.34
▁بیمار	-10.3403
▁registered	-10.3404
▁reduce	-10.3409
let	-10.3413
▁sale	-10.3414
▁keeping	-10.3415
▁اشکال	-10.3416
▁ورزشی	-10.3426
▁خودکار	-10.3428
بورگ	-10.3431
▁متاسف	-10.3434
▁کالا	-10.3435
so	-10.3449
▁بدهی	-10.3449
▁beauty	-10.3451
▁قدردانی	-10.3451
▁قلعه	-10.3451
▁هشدار	-10.3451
▁دستیابی	-10.3451
▁قدرتمند	-10.3451
▁علوم	-10.3451
▁spent	-10.3451
▁فرض	-10.3451
▁روبل	-10.3455
▁اسم	-10.3458
▁meters	-10.3458
▁below	-10.3459
▁loved	-10.3459
فه	-10.346
hi	-10.346
▁صرفه	-10.3461
▁دهان	-10.3462
▁آرزوی	-10.347
ff	-10.3473
▁2003	-10.3473
تل	-10.3486
▁mayor	-10.3492
ious	-10.3498
▁za	-10.3499
▁apply	-10.3501
▁principles	-10.3502
▁fruit	-10.3508
▁وض	-10.3508
▁نباش	-10.3511
▁regime	-10.352
▁birth	-10.3521
▁download	-10.3521
▁spices	-10.3521
▁strategy	-10.3521
▁تبادل	-10.3521
▁مجهز	-10.3521
خاذ	-10.3521
▁fresh	-10.3521
▁daily	-10.3522
▁shut	-10.3522
▁mineral	-10.3523
▁salt	-10.3525
by	-10.3526
▁connection	-10.3528
▁va	-10.3531
▁tue	-10.3536
▁مامان	-10.354
شا	-10.3541
▁عزیز	-10.3545
▁ideal	-10.355
▁covered	-10.3563
▁users	-10.3574
▁پیوند	-10.3575
▁رز	-10.3582
▁offered	-10.3591
nuclear	-10.3592
▁نقض	-10.3592
▁appeal	-10.3592
▁silent	-10.3592
▁کنسرت	-10.3592
▁executive	-10.3592
▁مخفی	-10.3592
▁hurt	-10.3592
▁ناپذیر	-10.3592
▁مسکن	-10.3592
▁انبار	-10.3592
▁پرونده	-10.3593
▁taste	-10.3593
▁پارکینگ	-10.3593
▁پایگاه	-10.3593
▁establishment	-10.3594
▁خام	-10.3596
▁mark	-10.3596
▁trial	-10.3598
▁exactly	-10.3599
pi	-10.3605
▁مجوز	-10.3614
▁goal	-10.3619
▁سالم	-10.3621
mer	-10.3623
▁hu	-10.363
▁placed	-10.3631
▁گیر	-10.3631
▁aware	-10.3636
we	-10.3641
▁فرزند	-10.3643
مو	-10.3646
▁مس	-10.3646
▁quick	-10.365
▁ژ	-10.3652
▁objects	-10.3653
▁تجدید	-10.3663
▁آژانس	-10.3663
▁نوآوری	-10.3663
▁عادت	-10.3663
▁responsible	-10.3664
▁انجیل	-10.3667
▁زنم	-10.3667
▁arrived	-10.3669
▁rent	-10.3672
▁نکند	-10.3675
▁roman	-10.369
ef	-10.3691
دون	-10.3695
▁growing	-10.3696
▁بالایی	-10.3706
▁thin	-10.3706
od	-10.3711
▁تبلیغات	-10.3715
▁fit	-10.3716
▁eur	-10.3717
▁ge	-10.3722
▁پیوست	-10.3725
▁review	-10.3725
▁کف	-10.3728
▁تمرین	-10.373
▁island	-10.3735
▁temple	-10.3735
▁بگویید	-10.3735
▁horns	-10.3736
▁متقابل	-10.3736
▁corruption	-10.3736
▁integration	-10.3737
پر	-10.374
▁fo	-10.3742
▁hate	-10.3743
▁موقت	-10.3746
▁مرغ	-10.375
ستر	-10.3755
▁dreams	-10.3758
▁منو	-10.3764
▁توپ	-10.3767
▁ابدی	-10.3777
جرات	-10.3778
▁مادرش	-10.378
ea	-10.3785
▁مین	-10.3786
▁تابستان	-10.3787
▁risk	-10.3789
سم	-10.3794
▁مر	-10.3797
▁store	-10.3798
ارت	-10.3801
خو	-10.3803
▁بیفتد	-10.3808
▁حکومت	-10.3808
▁دانلود	-10.3808
▁محبت	-10.3808
▁جنبش	-10.381
▁فرود	-10.3811
ble	-10.3812
▁فورا	-10.3816
حقق	-10.3816
▁کمپین	-10.3821
▁prepare	-10.3823
▁lie	-10.3824
▁sh	-10.3828
▁ط	-10.3834
▁banks	-10.3847
▁allah	-10.3849
▁خروج	-10.386
▁character	-10.3861
▁گرا	-10.3864
▁wasn	-10.3869
ger	-10.3872
▁حاکم	-10.3879
▁concert	-10.3881
▁eternal	-10.3881
▁tomorrow	-10.3881
▁احتیاط	-10.3881
▁خطوط	-10.3881
▁سادگی	-10.3881
▁متقاعد	-10.3881
▁معامله	-10.3881
▁voting	-10.3881
▁coast	-10.3881
▁towel	-10.3881
▁موتور	-10.3881
▁تبریک	-10.3882
▁thu	-10.3882
▁غرق	-10.3882
▁دختران	-10.3895
▁planet	-10.3899
▁filled	-10.39
pp	-10.3901
▁آرزو	-10.3908
ile	-10.3917
▁remained	-10.3919
▁ویزا	-10.3923
mon	-10.3932
▁benefit	-10.3945
▁initiative	-10.3945
▁ارز	-10.3953
▁medicine	-10.3954
▁oblast	-10.3954
▁pretty	-10.3954
▁نشیمن	-10.3954
▁کنوانسیون	-10.3954
▁osce	-10.3954
▁chosen	-10.3957
▁گذارد	-10.3962
▁advanced	-10.3969
▁negotiations	-10.3971
▁اجرایی	-10.3975
▁موهای	-10.3977
▁2002	-10.398
▁standards	-10.3982
▁88	-10.3984
▁عملی	-10.399
ative	-10.3999
▁زدند	-10.4004
▁tom	-10.4005
▁اط	-10.4006
ps	-10.4008
▁ادعا	-10.4009
▁سم	-10.4009
▁putin	-10.401
▁teach	-10.4012
▁angel	-10.4016
▁attempt	-10.402
ged	-10.4027
▁بهداشت	-10.4027
▁proletariat	-10.4028
▁نفوذ	-10.4028
▁پوتین	-10.4028
▁جلب	-10.4028
▁convert	-10.4029
▁fellow	-10.4029
▁انکار	-10.403
▁نویسنده	-10.403
▁برند	-10.4039
▁برویم	-10.4047
▁height	-10.4049
ova	-10.4049
▁touch	-10.405
▁پیشرفته	-10.4054
ster	-10.4055
mm	-10.4055
▁cap	-10.4066
ator	-10.4069
▁remains	-10.4071
line	-10.4073
▁strange	-10.4073
▁گری	-10.4077
▁believed	-10.4078
▁concerned	-10.4079
▁learning	-10.4087
▁برآورده	-10.4088
▁وای	-10.4088
▁خلق	-10.4092
▁villa	-10.4095
▁رویکرد	-10.4097
▁آس	-10.41
▁profit	-10.4101
▁محبوب	-10.4101
رگذاری	-10.4103
▁blind	-10.4103
▁confidence	-10.4103
▁journey	-10.4103
▁latvia	-10.4103
▁ارامنه	-10.4103
▁توزیع	-10.4103
▁ستاره	-10.4103
▁guess	-10.4103
▁لتونی	-10.4103
▁stopped	-10.4104
▁پاداش	-10.4104
▁worse	-10.4104
▁cake	-10.4105
▁افتد	-10.4105
▁فرمانده	-10.4105
▁گناهان	-10.4105
وش	-10.4107
▁wonder	-10.412
▁شنیدم	-10.4127
▁appeared	-10.4127
▁orders	-10.4141
▁تراس	-10.4142
▁select	-10.4147
▁maintain	-10.415
3	-10.4151
ven	-10.4162
▁ویل	-10.4162
▁meant	-10.4164
▁نامید	-10.4168
▁برتر	-10.417
▁figure	-10.4171
▁comment	-10.4172
▁ابتکار	-10.4173
▁advance	-10.4174
▁کوک	-10.4176
▁ایتالیا	-10.4177
▁فی	-10.4178
▁خانوادگی	-10.4178
▁شریعت	-10.4178
▁هو	-10.4189
▁designed	-10.419
▁expression	-10.4192
▁هایم	-10.4194
▁discuss	-10.4194
ction	-10.4198
▁دومین	-10.4208
▁عرض	-10.4216
▁j	-10.4222
▁پولس	-10.4226
▁learned	-10.4236
ja	-10.4237
▁america	-10.4239
▁سلامتی	-10.4248
▁reasons	-10.425
▁customer	-10.4251
▁dinner	-10.4254
▁evidence	-10.4254
▁strike	-10.4254
▁تکامل	-10.4254
▁توقف	-10.4254
▁اگه	-10.4254
▁promotion	-10.4256
▁برخوردار	-10.426
▁arab	-10.426
▁spoken	-10.4266
▁looks	-10.4269
▁disciples	-10.4269
ites	-10.427
▁origin	-10.4275
▁حین	-10.4276
▁موجودات	-10.4282
▁بابا	-10.4291
ium	-10.4291
ice	-10.4298
ification	-10.4323
کش	-10.4323
▁walked	-10.4324
▁اسلامی	-10.4326
▁نقل	-10.4329
▁ارتقا	-10.433
▁ancient	-10.433
▁easily	-10.433
▁سقوط	-10.433
▁صفحات	-10.433
▁مراجع	-10.433
▁repair	-10.433
▁gospel	-10.433
▁الهام	-10.433
▁درخشان	-10.433
▁captain	-10.433
▁income	-10.4331
▁قبول	-10.4332
▁مقاومت	-10.4334
▁thereof	-10.4338
ou	-10.434
یچ	-10.4353
▁educational	-10.4355
▁reading	-10.4363
ریک	-10.4363
▁سوئ	-10.4366
▁امنیتی	-10.4367
▁certainly	-10.4369
▁دوستی	-10.4371
ise	-10.4376
▁perform	-10.4379
▁ژاپن	-10.439
▁نفرت	-10.4392
▁finding	-10.4396
▁gift	-10.4401
▁witness	-10.4402
▁تحقیق	-10.4403
▁super	-10.4403
▁methods	-10.4403
▁types	-10.4404
▁ثروت	-10.4407
▁judah	-10.4407
▁فدرال	-10.4407
▁مساحت	-10.4407
▁نفع	-10.4407
▁میراث	-10.4407
▁فریب	-10.4407
▁chew	-10.4407
▁فروشگاه	-10.4411
▁series	-10.4417
our	-10.4426
▁ویلا	-10.4429
▁هنری	-10.4429
▁کارها	-10.443
▁نوعی	-10.4432
▁روحیه	-10.444
▁بست	-10.4442
▁99	-10.4448
▁قومی	-10.446
▁cur	-10.4465
time	-10.4466
▁agree	-10.4472
▁شهردار	-10.4481
▁comfort	-10.4483
▁اسپانیا	-10.4484
▁impossible	-10.4485
▁tournament	-10.4485
▁عظیم	-10.4485
▁لمس	-10.4485
▁section	-10.4485
▁خانگی	-10.4485
▁democratic	-10.4486
▁ببرید	-10.4487
▁sky	-10.449
▁قتل	-10.449
▁terrorist	-10.449
▁استانداردهای	-10.4492
▁visited	-10.4495
▁حدس	-10.45
▁vol	-10.4502
▁processes	-10.4508
▁sick	-10.451
▁کلاه	-10.4513
▁بش	-10.4515
▁finished	-10.4525
▁جور	-10.4527
▁وعده	-10.4527
▁limit	-10.453
▁خواهر	-10.453
▁items	-10.4532
▁برگرد	-10.4532
ائو	-10.4537
رز	-10.4544
tur	-10.4557
▁جذاب	-10.4561
▁ceremony	-10.4563
▁رم	-10.4563
▁block	-10.4569
▁hearts	-10.4571
▁raised	-10.4573
انت	-10.4574
▁نبرد	-10.4577
ee	-10.458
▁وجه	-10.458
▁investors	-10.4581
▁attended	-10.4585
▁شبانه	-10.4586
▁فار	-10.4595
lly	-10.4595
▁moral	-10.4597
▁mom	-10.4598
سر	-10.4598
ze	-10.4602
▁ماست	-10.4609
▁customs	-10.4612
▁calling	-10.4616
▁حکم	-10.4621
▁equal	-10.4626
▁firm	-10.4629
▁deposit	-10.4635
▁appropriate	-10.4642
▁dedicated	-10.4642
▁referendum	-10.4642
▁violence	-10.4642
▁جشنواره	-10.4642
▁ایالت	-10.4642
▁تردید	-10.4643
▁راضی	-10.4643
▁نهادهای	-10.4647
▁کام	-10.4649
▁جویی	-10.4661
▁friendly	-10.4674
مر	-10.4683
تیک	-10.4684
▁فرانک	-10.4686
one	-10.4688
▁processing	-10.4689
▁پن	-10.469
▁روستا	-10.4698
▁بازیکن	-10.47
چار	-10.4707
▁هماهنگ	-10.4707
▁ناامید	-10.4707
▁regular	-10.4708
ire	-10.4709
▁successful	-10.4709
▁vote	-10.4714
▁اظهار	-10.4716
▁procedure	-10.4718
▁مقام	-10.472
▁possibility	-10.4721
▁الکساندر	-10.4721
▁دوازده	-10.4721
▁conversation	-10.4721
▁محض	-10.4721
▁bible	-10.4723
▁festival	-10.4723
▁نوسازی	-10.4723
▁مقرر	-10.4725
▁ear	-10.473
▁هماهنگی	-10.4735
▁circumstances	-10.4735
▁mail	-10.4741
▁loaded	-10.4742
▁attract	-10.4743
خت	-10.4748
▁توانستند	-10.4752
io	-10.4753
▁کارگر	-10.4754
▁فهمیدم	-10.4754
▁inform	-10.4755
ks	-10.4762
▁احتمال	-10.4763
▁ri	-10.4763
▁qu	-10.4766
▁نوشت	-10.4772
▁ku	-10.4773
▁dress	-10.4775
▁دانی	-10.4783
▁pu	-10.4796
▁restaurant	-10.4798
▁prophet	-10.4798
▁paper	-10.4799
▁lose	-10.4799
▁kyrgyz	-10.4801
▁تجزیه	-10.4801
▁معبد	-10.4801
▁یعقوب	-10.4801
▁ارشد	-10.4801
▁املاک	-10.4801
▁دندان	-10.4802
▁داغ	-10.4802
▁طرز	-10.4802
▁contribution	-10.4805
▁مبن	-10.4806
▁tight	-10.4809
den	-10.481
▁متخصصان	-10.4816
▁شرکای	-10.4819
▁پشتیبانی	-10.4823
▁eggs	-10.4826
▁cent	-10.4835
▁سنتی	-10.4836
نکو	-10.4845
▁agreements	-10.4854
▁link	-10.4861
int	-10.4861
▁پرسی	-10.4863
▁عصبانی	-10.4869
▁participate	-10.4871
yev	-10.4872
▁matters	-10.4875
▁expert	-10.4879
▁structure	-10.4879
▁proceed	-10.4881
▁basket	-10.4881
▁resort	-10.4882
▁محکم	-10.4882
▁housing	-10.4882
▁پرورش	-10.4882
▁false	-10.4882
▁لوازم	-10.4882
▁هدیه	-10.4882
▁partner	-10.4883
▁gate	-10.4886
▁گذرد	-10.4887
▁نشود	-10.4887
▁zh	-10.4887
▁وحشت	-10.4887
▁frank	-10.4892
cing	-10.4897
che	-10.4903
▁dwell	-10.4903
▁compared	-10.4906
▁aim	-10.4907
▁traditional	-10.4909
▁moved	-10.4909
▁weak	-10.4912
▁بالاترین	-10.4916
▁tasks	-10.4917
▁skin	-10.4927
▁features	-10.4929
▁register	-10.4935
▁پدران	-10.4936
▁فرستاده	-10.4943
▁روزانه	-10.4946
▁وحشتناک	-10.4951
▁options	-10.4951
▁مهمی	-10.4954
▁کاهن	-10.4959
لیا	-10.496
▁120	-10.4962
▁import	-10.4963
▁agriculture	-10.4963
▁اعتراض	-10.4963
▁مراکز	-10.4963
▁equipped	-10.4963
▁آغوش	-10.4963
▁discussion	-10.4964
▁جسم	-10.4964
▁پیرو	-10.4965
▁اکثریت	-10.4965
▁یادگیری	-10.4968
▁powerful	-10.4976
▁میشه	-10.4981
▁bus	-10.4983
▁پیشرو	-10.4984
▁ناراحتی	-10.4992
▁امیدوارم	-10.4994
▁mere	-10.5001
sha	-10.5003
▁tri	-10.5004
▁bra	-10.5006
▁residents	-10.5006
▁ماهیت	-10.501
▁net	-10.5022
▁رفتم	-10.5027
▁names	-10.5033
▁euro	-10.5036
▁600	-10.5036
▁چا	-10.5039
▁waters	-10.504
▁بیل	-10.504
▁contest	-10.5045
▁karabakh	-10.5045
▁replied	-10.5045
▁telephone	-10.5045
▁پتانسیل	-10.5045
▁couple	-10.5045
▁mehri	-10.5045
▁moving	-10.5045
▁فرشته	-10.5045
▁consciousness	-10.5046
ell	-10.5049
▁کجاست	-10.505
▁twin	-10.505
شیوه	-10.505
▁نقاشی	-10.5057
▁user	-10.5058
▁کارگری	-10.506
kov	-10.5062
▁corner	-10.5064
▁raw	-10.5065
▁1392	-10.5067
▁هشت	-10.5069
pat	-10.5071
گران	-10.5072
▁سایه	-10.5076
▁easter	-10.5079
نیک	-10.5079
▁پسرش	-10.5081
▁syrian	-10.5084
▁آوردند	-10.5087
▁row	-10.509
▁clearly	-10.5093
▁جامع	-10.5095
▁بردن	-10.5097
▁produce	-10.5102
▁دن	-10.5103
▁87	-10.5105
▁heat	-10.5108
rin	-10.5126
▁applied	-10.5127
▁federal	-10.5127
▁genocide	-10.5127
▁میزبان	-10.5129
▁الهی	-10.5129
▁کاخ	-10.5129
▁سرور	-10.513
▁کتابخانه	-10.5131
▁cash	-10.5131
out	-10.5133
▁نباشد	-10.5135
▁constitutional	-10.5137
▁همکاران	-10.5141
▁لاس	-10.5141
▁درد	-10.5143
▁fields	-10.5144
ung	-10.5151
▁x	-10.5152
▁las	-10.5153
▁visitors	-10.5157
▁ور	-10.5158
▁turning	-10.5166
▁aid	-10.517
▁ضرب	-10.5173
▁اخلاقی	-10.5174
bu	-10.518
▁manager	-10.518
▁decide	-10.5183
▁programme	-10.5184
اج	-10.5191
▁خوشحالی	-10.5199
▁fathers	-10.52
▁prison	-10.5201
▁کاربر	-10.5204
▁associat	-10.5208
▁آفریقا	-10.521
▁arrival	-10.5211
▁enemy	-10.5211
▁yesterday	-10.5211
▁آجیل	-10.5211
▁آکادمی	-10.5211
▁جماهیر	-10.5211
▁دوچرخه	-10.5211
▁permanent	-10.5211
▁پردازش	-10.5211
▁ایندیانا	-10.5211
▁خودرو	-10.5211
▁دام	-10.5212
▁duty	-10.5212
▁girls	-10.5212
▁comfortable	-10.5213
▁improvement	-10.5213
▁indiana	-10.5214
▁دهی	-10.5218
▁بدان	-10.5222
▁ministers	-10.5222
▁goals	-10.5226
▁promised	-10.5227
▁employees	-10.5227
▁کلید	-10.5229
▁کاربران	-10.5229
▁بهینه	-10.5232
ised	-10.5232
▁allows	-10.5237
سکو	-10.524
▁caused	-10.5244
نج	-10.5271
صد	-10.5272
▁officers	-10.5275
▁annual	-10.5282
▁نظام	-10.5282
▁flat	-10.5284
▁pages	-10.5284
▁release	-10.5285
▁crime	-10.5288
▁operations	-10.5291
▁analysis	-10.5295
▁crowd	-10.5295
▁terrace	-10.5295
▁تقدیم	-10.5295
▁صنایع	-10.5295
▁شاخص	-10.5295
▁committed	-10.5295
▁fuel	-10.5296
▁relationship	-10.5296
▁الزامات	-10.5297
▁طلایی	-10.5297
▁باشگاه	-10.5298
▁مدارس	-10.5299
▁nato	-10.5299
▁بدانید	-10.5299
▁meaning	-10.5306
gh	-10.5309
▁formation	-10.531
▁implemented	-10.5317
unt	-10.5325
ery	-10.5329
▁counter	-10.5331
وان	-10.5331
▁conducted	-10.5337
رهای	-10.5349
▁شوهر	-10.535
▁spend	-10.5351
▁گرفتیم	-10.5353
▁candidates	-10.5355
▁rep	-10.5363
▁elements	-10.5374
▁danger	-10.5379
▁advice	-10.538
▁screen	-10.538
▁supreme	-10.538
▁universal	-10.538
▁متعدد	-10.538
▁معروف	-10.538
▁همزمان	-10.538
▁سوراخ	-10.538
▁diplomatic	-10.538
▁maximum	-10.538
▁بگیرند	-10.5386
▁hast	-10.5388
▁wise	-10.5388
▁hoping	-10.539
ریا	-10.5393
▁notice	-10.5394
▁شوخی	-10.5395
▁monitoring	-10.5402
▁appear	-10.5405
▁windows	-10.5407
▁کشت	-10.541
▁گردش	-10.5412
▁fort	-10.5413
▁کوچکی	-10.5417
ries	-10.5419
اعت	-10.5431
▁q	-10.5434
▁sacrifice	-10.5436
زار	-10.5444
my	-10.5449
▁تخم	-10.5454
▁photos	-10.5458
▁famous	-10.5465
▁pleasure	-10.5465
▁غیرممکن	-10.5465
▁اشغال	-10.5465
▁turkish	-10.5465
▁leadership	-10.5465
▁appearance	-10.5466
▁tourism	-10.5467
▁پولی	-10.5467
▁بکشد	-10.547
▁appointed	-10.5471
▁لوله	-10.5472
▁hearing	-10.5472
ok	-10.5474
▁troops	-10.5474
ass	-10.5474
▁تپه	-10.5476
▁generation	-10.5477
▁فاش	-10.5477
▁بگیر	-10.5496
▁vice	-10.5498
▁آمار	-10.5501
▁غم	-10.5502
▁trees	-10.5504
▁بهت	-10.5505
▁گر	-10.5505
▁feed	-10.5512
gin	-10.5518
▁blow	-10.5523
▁پری	-10.5523
uk	-10.5529
کت	-10.5534
▁languages	-10.5535
فور	-10.5535
▁solutions	-10.5538
▁cell	-10.554
▁constitution	-10.5541
▁هواپیما	-10.5544
▁print	-10.5545
▁snow	-10.5551
▁chapter	-10.5551
▁iraq	-10.5551
▁متمرکز	-10.5551
▁agenda	-10.5551
▁جداگانه	-10.5551
▁married	-10.5551
▁اتوبوس	-10.5551
▁داوری	-10.5551
▁palace	-10.5551
▁creating	-10.5552
▁operating	-10.5552
▁existence	-10.5552
▁grave	-10.5552
▁فراوان	-10.5553
▁بخوانید	-10.5554
▁پیچ	-10.5555
▁mercy	-10.5555
▁poem	-10.5556
▁latest	-10.5558
cc	-10.5563
▁beat	-10.5564
▁بگیریم	-10.5567
▁hat	-10.5574
▁پدرم	-10.5578
ual	-10.5579
▁چندان	-10.558
▁pictures	-10.5581
▁commanded	-10.5587
▁پرو	-10.5599
uff	-10.56
▁1000	-10.5604
▁enterprises	-10.5605
▁sins	-10.5607
ten	-10.5612
▁همسرش	-10.5614
▁topic	-10.5624
ken	-10.5629
▁markets	-10.563
len	-10.5636
▁ممنوع	-10.5637
▁coffee	-10.5638
▁everybody	-10.5638
▁relevant	-10.5638
▁worry	-10.5638
▁seminar	-10.5638
▁عراق	-10.5639
▁leaf	-10.5639
▁دیپلماتیک	-10.5639
▁شیمیایی	-10.5639
▁پذیرایی	-10.5642
▁zone	-10.5643
▁نماد	-10.5645
▁دهقانان	-10.5645
▁منظره	-10.5646
▁بزند	-10.5646
▁method	-10.5647
▁fly	-10.565
▁buildings	-10.5658
▁connected	-10.5659
▁دانستند	-10.5676
med	-10.5683
▁پنجم	-10.5688
▁streets	-10.5697
▁شانه	-10.5699
king	-10.5705
▁mad	-10.5712
ls	-10.5715
▁imagine	-10.5719
▁administrati	-10.5723
▁format	-10.5725
▁divine	-10.5726
▁chemical	-10.5726
▁swimming	-10.5726
▁جعبه	-10.5726
▁عواقب	-10.5726
▁همینطور	-10.5726
▁estate	-10.5726
▁corporate	-10.5726
▁فقیر	-10.5726
▁valid	-10.5727
▁بازدیدکنندگان	-10.5727
مور	-10.5727
▁scale	-10.5728
▁stability	-10.5728
▁ویران	-10.5728
▁spain	-10.5729
▁گیج	-10.5729
▁shape	-10.5733
▁frame	-10.5733
سوری	-10.5736
▁forest	-10.5736
▁teacher	-10.574
▁قطعات	-10.5749
▁تروریستی	-10.5757
las	-10.5761
▁آمدن	-10.5761
ari	-10.5765
▁cra	-10.5767
▁launch	-10.5787
▁song	-10.5789
tle	-10.5793
▁levels	-10.5795
▁شهروند	-10.58
▁guide	-10.5804
▁حیات	-10.581
▁حیوان	-10.581
▁ظرف	-10.5813
▁climate	-10.5814
▁earlier	-10.5814
▁impact	-10.5814
▁اقیانوس	-10.5814
▁عناصر	-10.5814
▁ممنون	-10.5814
▁platform	-10.5814
▁توجیه	-10.5815
▁smell	-10.5815
▁دیروز	-10.5816
▁james	-10.5816
▁uh	-10.5819
▁شنیدن	-10.582
▁element	-10.5821
▁کمال	-10.5822
▁دستان	-10.5823
▁اشتباهات	-10.5829
▁guy	-10.5833
ادی	-10.5835
▁باکو	-10.5838
▁sport	-10.5844
mar	-10.5847
▁رویه	-10.5848
▁ru	-10.5851
▁عرضه	-10.5859
ئی	-10.5862
▁cor	-10.5887
▁applications	-10.5893
▁سلطنت	-10.5899
▁سپر	-10.5903
▁commercial	-10.5904
▁delegation	-10.5904
▁description	-10.5904
▁salvation	-10.5904
▁لیتوانی	-10.5904
▁مزرعه	-10.5904
▁agricultural	-10.5904
▁louis	-10.5904
▁protest	-10.5904
▁railway	-10.5904
▁del	-10.5904
▁para	-10.5909
ue	-10.591
▁advantage	-10.591
▁provision	-10.5911
▁issuer	-10.5918
▁اوج	-10.5919
▁id	-10.5933
▁ریشه	-10.594
▁شکسته	-10.5943
کننده	-10.5947
ory	-10.5947
▁priests	-10.5948
ex	-10.5949
▁دشمنان	-10.595
▁ok	-10.5951
▁chin	-10.5957
▁سیر	-10.5958
پو	-10.5959
لین	-10.5962
ach	-10.5962
▁fingers	-10.5963
▁realize	-10.5963
0000	-10.5969
▁مناسبت	-10.5969
lia	-10.5973
ned	-10.5989
▁مبت	-10.5993
▁finland	-10.5994
▁مداخل	-10.5994
▁سفارت	-10.5994
▁بازداشت	-10.5994
▁multi	-10.5996
▁fourth	-10.6002
▁dance	-10.6003
▁proof	-10.6005
▁bound	-10.6005
▁خلاصه	-10.6013
▁communications	-10.6014
زاس	-10.6014
▁sw	-10.6015
▁mountains	-10.6015
▁sake	-10.6016
▁brothers	-10.6019
▁بازیکنان	-10.6022
▁limited	-10.6026
▁نشینی	-10.6027
▁jump	-10.6029
▁player	-10.6029
▁کاش	-10.6031
▁حو	-10.6034
▁سواری	-10.6036
ki	-10.6036
▁pol	-10.6037
جی	-10.6037
izing	-10.6044
▁خوشحالم	-10.6047
▁تند	-10.6056
▁جدای	-10.6061
تار	-10.6064
▁purchase	-10.6073
▁raise	-10.6075
▁reflect	-10.6078
▁glass	-10.6079
▁ability	-10.6081
▁تحقیر	-10.6085
▁bottom	-10.6085
▁temperature	-10.6085
▁تئاتر	-10.6085
▁حتما	-10.6085
▁غیرقانونی	-10.6085
▁منظم	-10.6085
تشکل	-10.6087
▁difference	-10.6093
▁saint	-10.6093
ug	-10.6095
گل	-10.6097
▁کاغذ	-10.6099
tar	-10.6101
▁نوار	-10.6106
▁mi	-10.611
▁مهمتر	-10.6111
▁بگذارم	-10.6111
side	-10.6112
▁pen	-10.6118
▁isn	-10.6121
car	-10.6126
ick	-10.6135
▁موج	-10.6137
▁اسکی	-10.6144
▁ends	-10.6147
▁driver	-10.6147
▁defenders	-10.6148
▁suggest	-10.6149
▁animals	-10.6152
ib	-10.6156
▁hole	-10.6162
▁loud	-10.6171
ظ	-10.6175
▁library	-10.6176
▁اشتغال	-10.6176
▁خالص	-10.6176
▁دستورالعمل	-10.6176
▁پروردگار	-10.6176
▁سمینار	-10.6177
▁japan	-10.6177
▁terrorism	-10.6177
▁grew	-10.6177
▁آلود	-10.6177
▁شمع	-10.6178
▁هایشان	-10.6181
▁جفت	-10.6182
فته	-10.6183
▁پاهای	-10.6184
▁shows	-10.6185
▁رایانه	-10.6189
▁69	-10.6189
▁مدیره	-10.6196
▁2001	-10.6202
▁کوهستانی	-10.6204
▁ni	-10.6208
gra	-10.6208
▁دادیم	-10.6208
field	-10.621
▁spa	-10.6212
اگ	-10.6213
زاب	-10.6214
▁kings	-10.6216
▁crying	-10.6219
کین	-10.6221
▁ریز	-10.6224
▁rome	-10.6225
ham	-10.6226
خوان	-10.6227
▁لبه	-10.6229
▁ستون	-10.623
زن	-10.623
لس	-10.623
نیا	-10.6231
▁sam	-10.6236
▁توانی	-10.6237
art	-10.625
ران	-10.6251
▁formed	-10.6252
▁دائمی	-10.6255
▁شغلی	-10.6259
▁cre	-10.6263
▁انتقاد	-10.6264
▁mile	-10.6265
▁فضا	-10.6265
▁خلاق	-10.6268
▁abroad	-10.6269
▁enemies	-10.6269
▁residence	-10.6269
▁wisdom	-10.6269
▁سرگئی	-10.6269
▁سطوح	-10.6269
▁عوامل	-10.6269
▁کوچولو	-10.6269
▁کیلوگرم	-10.6269
▁بخار	-10.6269
▁phase	-10.6269
▁labour	-10.6269
▁لندن	-10.6269
▁سرباز	-10.6275
▁bedroom	-10.628
▁بیمه	-10.6281
▁dar	-10.6281
▁پوشیده	-10.6283
itch	-10.6283
▁containing	-10.6289
▁promote	-10.6289
▁اخیرا	-10.6289
▁فیزیکی	-10.6295
▁جرم	-10.6297
▁issued	-10.63
▁mis	-10.6302
▁یافتن	-10.6302
▁booking	-10.6303
▁weapons	-10.6304
ana	-10.6305
▁mary	-10.6309
▁tra	-10.6315
▁غر	-10.6319
▁بوی	-10.6322
گونه	-10.633
▁shoot	-10.6334
لر	-10.6336
ible	-10.6336
for	-10.6337
rt	-10.6347
انس	-10.6349
▁defend	-10.6353
▁mal	-10.6355
▁missing	-10.6357
▁برم	-10.6358
▁نهاد	-10.6362
▁essential	-10.6363
▁زخم	-10.6363
▁هوشمند	-10.6363
▁dialogue	-10.6363
▁یادداشت	-10.6363
▁beast	-10.6363
▁wonderful	-10.6365
▁متعلق	-10.6366
▁وسیع	-10.6368
▁declared	-10.6374
▁environmental	-10.6375
▁courses	-10.6375
bar	-10.6378
▁خوردن	-10.6379
▁سام	-10.6386
zi	-10.6388
▁سران	-10.6393
▁stat	-10.6394
▁ski	-10.641
▁clients	-10.6417
▁شع	-10.6429
▁افزود	-10.6435
oo	-10.6436
▁shi	-10.6437
▁زا	-10.6439
فت	-10.6441
▁معلم	-10.6442
▁thousands	-10.6445
▁افسر	-10.6445
▁برف	-10.6446
qui	-10.6449
▁career	-10.645
▁accommodation	-10.6457
▁attitude	-10.6457
▁excellent	-10.6457
▁legislative	-10.6457
▁london	-10.6457
▁studies	-10.6457
▁wrote	-10.6457
▁المپیک	-10.6457
▁تعامل	-10.6457
▁توصیف	-10.6457
▁همسایه	-10.6457
▁حیدر	-10.6457
▁profile	-10.6457
▁clock	-10.6458
▁قطعنامه	-10.6458
▁clothes	-10.646
▁رانندگ	-10.6464
▁introduced	-10.6464
▁دانشجویان	-10.6464
▁شورش	-10.6465
▁بزنم	-10.6468
▁baku	-10.6472
▁مادی	-10.6474
بین	-10.6475
▁اموال	-10.6475
▁نیت	-10.6482
▁2050	-10.6483
mu	-10.6483
▁یکسان	-10.6484
▁2018	-10.6485
▁پله	-10.6485
▁خریدار	-10.6495
بایف	-10.6497
▁consumer	-10.6508
▁sch	-10.652
▁fighting	-10.6536
▁بول	-10.6552
▁atmosphere	-10.6552
▁covenant	-10.6552
▁fundamental	-10.6552
▁revelation	-10.6552
▁مصاحبه	-10.6552
▁معاملات	-10.6552
▁تاخیر	-10.6552
▁تغذیه	-10.6552
▁ناهار	-10.6552
▁روغن	-10.6552
▁proud	-10.6554
▁dan	-10.6554
▁italy	-10.6555
▁prosecutor	-10.6555
▁invited	-10.6558
▁محقق	-10.6561
of	-10.6565
▁edge	-10.6566
▁توضیحات	-10.6567
▁روزه	-10.6572
▁رحمت	-10.6574
▁چراغ	-10.6575
است	-10.658
▁praise	-10.6583
iev	-10.6595
▁unit	-10.6598
ign	-10.6598
▁bell	-10.6599
her	-10.6599
ute	-10.66
tes	-10.6612
▁لب	-10.6615
▁attend	-10.6621
yn	-10.6623
▁مقابله	-10.6627
▁waste	-10.663
▁متخصص	-10.6631
▁represent	-10.6631
▁metal	-10.6634
▁app	-10.6635
▁luck	-10.6644
▁گم	-10.6645
▁صلیب	-10.6648
▁declaration	-10.6649
▁initial	-10.6649
▁نقدی	-10.6649
▁اردوگاه	-10.6649
▁instant	-10.6649
▁شرح	-10.665
▁poland	-10.665
▁pack	-10.665
▁huge	-10.6652
▁قر	-10.6656
▁برده	-10.6661
▁degree	-10.6662
▁option	-10.6663
▁chase	-10.6669
iz	-10.6669
▁shop	-10.667
▁دستورات	-10.667
▁si	-10.667
▁values	-10.6672
ay	-10.6674
▁te	-10.6701
▁mode	-10.6702
rm	-10.6703
▁محیطی	-10.6706
▁jobs	-10.6713
▁birds	-10.6715
▁اومد	-10.6715
▁آور	-10.6715
▁اب	-10.6717
▁van	-10.6723
▁provid	-10.6725
▁treat	-10.6728
ons	-10.6729
کاران	-10.6733
▁آرا	-10.6735
▁invest	-10.6741
▁object	-10.6743
▁slow	-10.6744
▁abraham	-10.6745
▁atlanta	-10.6745
▁czech	-10.6745
▁olympic	-10.6745
▁آتلانتا	-10.6745
▁تروریسم	-10.6745
▁نقاط	-10.6745
▁استخدام	-10.6745
▁سرزنش	-10.6745
▁interview	-10.6745
▁خاندان	-10.6746
▁نادرست	-10.6746
▁broad	-10.6746
▁minsk	-10.6746
▁stick	-10.6747
▁kar	-10.675
▁دامن	-10.6751
▁مدارک	-10.6752
hr	-10.6753
▁rates	-10.6754
▁sold	-10.6755
tin	-10.6756
gi	-10.6757
▁promise	-10.6758
▁recognized	-10.676
▁belong	-10.676
▁فرآیندهای	-10.6761
ouri	-10.6766
▁درختان	-10.6767
▁معماری	-10.6771
▁azerbaijani	-10.6774
رادو	-10.6776
▁sand	-10.678
▁beside	-10.6788
par	-10.679
▁پرت	-10.6795
▁gun	-10.68
▁officials	-10.68
▁نخواهی	-10.6805
▁bre	-10.6806
▁آماد	-10.6807
▁راهنمایی	-10.6815
rat	-10.6819
▁بخشید	-10.6837
موکراسی	-10.6843
▁jacob	-10.6843
▁response	-10.6843
▁twice	-10.6843
▁تعادل	-10.6843
▁مشاغل	-10.6843
▁silence	-10.6843
▁احکام	-10.6843
▁ارباب	-10.6843
▁بلیط	-10.6843
▁خطرناک	-10.6844
▁friendship	-10.6844
▁email	-10.6844
▁damage	-10.6848
▁اسلام	-10.6848
▁transportation	-10.6849
▁گالری	-10.685
▁supposed	-10.6853
▁گال	-10.6854
▁شل	-10.6855
▁اینقدر	-10.6859
▁stressed	-10.6864
▁gathered	-10.6866
▁فیلا	-10.6872
▁شیرین	-10.6873
▁کیس	-10.6875
▁georgian	-10.6875
▁شفا	-10.6879
▁اوکراینی	-10.6879
▁صورتش	-10.6889
▁putt	-10.6889
▁experienced	-10.6891
▁نوشیدنی	-10.6891
▁accepted	-10.6893
set	-10.6895
شتی	-10.6896
ydar	-10.6902
▁کارش	-10.691
شدید	-10.6913
▁succeed	-10.6914
▁بانکی	-10.6919
▁calls	-10.692
▁داشتیم	-10.6927
تور	-10.6927
▁راستا	-10.6936
ade	-10.6939
▁amsterdam	-10.6942
▁context	-10.6942
▁emergency	-10.6942
▁escape	-10.6942
▁آمستردام	-10.6942
▁اجتناب	-10.6942
▁انبوه	-10.6942
▁جهنم	-10.6942
▁موضع	-10.6942
▁ابراهیم	-10.6942
▁ناشر	-10.6943
▁knight	-10.6943
▁joseph	-10.6943
▁شکایت	-10.6943
▁پنجاه	-10.6943
▁دوربین	-10.6945
▁قفل	-10.6946
▁مالیاتی	-10.6946
▁مبل	-10.6947
fully	-10.6947
▁خیال	-10.6948
▁tu	-10.6948
▁خف	-10.6948
وو	-10.6951
▁alive	-10.6952
▁suit	-10.6967
سوتا	-10.6969
▁sites	-10.6972
سب	-10.6973
▁واکنش	-10.6977
▁کنه	-10.6978
▁unity	-10.6979
▁فن	-10.6979
▁سینه	-10.698
▁coat	-10.6982
ray	-10.6983
وویچ	-10.6985
▁برش	-10.6988
▁pet	-10.6989
▁lessons	-10.699
▁nearly	-10.6998
دلفی	-10.6999
▁nose	-10.7001
▁دیدند	-10.7005
▁surely	-10.7006
▁امضای	-10.7017
▁سخن	-10.702
▁مدافع	-10.7032
▁سرم	-10.7032
▁africa	-10.7033
▁روزها	-10.7035
▁relax	-10.704
▁islam	-10.7041
▁neighbor	-10.7042
▁بور	-10.7042
▁entrance	-10.7042
▁introduction	-10.7042
▁strategic	-10.7042
▁اشخاص	-10.7042
▁جراح	-10.7042
▁صلاحیت	-10.7042
▁محمد	-10.7042
▁سبد	-10.7043
▁thick	-10.7043
▁vision	-10.7043
▁وسط	-10.7043
▁entry	-10.7043
▁ph	-10.7043
▁extraordinary	-10.7043
▁title	-10.7043
▁میخوای	-10.7043
▁guard	-10.7048
▁plants	-10.7049
▁جایگاه	-10.705
ide	-10.7057
▁عملیاتی	-10.7058
▁unless	-10.7059
▁برکت	-10.706
▁reserve	-10.706
▁effort	-10.706
▁رمز	-10.7065
ندگان	-10.7066
▁guys	-10.7067
▁شکر	-10.707
su	-10.7072
▁جوانی	-10.7079
▁نکنم	-10.7088
▁yu	-10.7105
▁ترسید	-10.7116
▁messages	-10.7121
▁منظورم	-10.7122
▁انگشت	-10.7123
▁پذیری	-10.7128
▁sum	-10.7135
▁اصطلاح	-10.7139
حه	-10.714
▁قزاق	-10.7143
▁academy	-10.7143
▁otherwise	-10.7143
▁twelve	-10.7143
▁شایسته	-10.7143
▁نژاد	-10.7143
▁کاپیتان	-10.7143
▁medium	-10.7143
▁brand	-10.7143
▁اتصال	-10.7144
▁hidden	-10.7144
▁scene	-10.7144
▁خیمه	-10.7144
▁گذر	-10.7144
sota	-10.7145
▁stuff	-10.7145
▁islamic	-10.7146
▁becomes	-10.7147
▁darkness	-10.7149
delphi	-10.715
▁nag	-10.715
▁نگرش	-10.7151
▁ناگهانی	-10.7163
▁dogs	-10.7167
▁pieces	-10.7171
انگ	-10.7178
▁گا	-10.718
▁powers	-10.718
▁آلات	-10.7184
work	-10.7186
▁خبری	-10.7187
ern	-10.7193
ship	-10.7198
af	-10.7199
ووا	-10.7199
▁آوردن	-10.7201
▁mistakes	-10.7203
▁آگ	-10.7207
▁ناب	-10.7224
▁برج	-10.7227
▁رحم	-10.7229
▁تحصیل	-10.7231
▁سرگرم	-10.7235
▁مهندسی	-10.7242
▁افغانستان	-10.7245
▁pierre	-10.7245
▁اتریش	-10.7245
▁heavy	-10.7246
▁overcome	-10.7246
▁ارزشمند	-10.7246
▁queen	-10.7246
▁پرتاب	-10.7247
▁lies	-10.7247
▁مینسک	-10.7247
▁شلیک	-10.7248
▁modernization	-10.7248
▁marry	-10.7249
▁ram	-10.7252
▁midst	-10.7256
▁benefits	-10.7258
▁پیروز	-10.7261
▁قطعا	-10.7265
▁fixed	-10.7266
nois	-10.7267
▁برگ	-10.7268
▁حملات	-10.7269
▁served	-10.727
▁directions	-10.727
▁approved	-10.7271
▁forced	-10.7275
▁ut	-10.7276
back	-10.7295
▁socialist	-10.7303
▁ended	-10.7306
▁watching	-10.7315
▁شن	-10.7318
▁load	-10.7323
ept	-10.7327
▁farm	-10.733
▁اونجا	-10.7335
▁موافق	-10.7337
▁manufacture	-10.7338
▁tre	-10.7338
▁250	-10.7338
▁named	-10.734
▁radio	-10.734
▁exceed	-10.7349
▁category	-10.7349
▁newspaper	-10.7349
▁reception	-10.7349
▁understood	-10.7349
▁التماس	-10.7349
▁شواهد	-10.7349
▁عبادت	-10.7349
▁قاضی	-10.7349
▁ناحیه	-10.7349
▁ناخالص	-10.7349
▁steel	-10.7349
▁ring	-10.7349
▁delay	-10.7349
▁تهو	-10.735
▁wealth	-10.735
▁صاف	-10.735
▁متی	-10.7353
▁بتوانم	-10.7356
▁panel	-10.7357
▁comments	-10.7359
▁poll	-10.7359
▁ref	-10.7363
▁threat	-10.7366
▁innovation	-10.7369
▁castle	-10.7369
▁سازد	-10.7369
▁sheep	-10.737
▁factor	-10.7371
▁چینی	-10.7373
▁پیشنهادات	-10.7375
▁shared	-10.7379
▁useful	-10.7383
▁گواهی	-10.7383
nic	-10.7384
▁shoulder	-10.7387
▁illi	-10.739
▁نمای	-10.7394
▁روس	-10.7402
▁گرگ	-10.7404
▁مق	-10.7408
more	-10.7411
▁pleased	-10.7415
▁expand	-10.7425
ight	-10.7435
dor	-10.7435
▁رسول	-10.7441
▁bedrooms	-10.7441
▁faced	-10.7442
▁possess	-10.7442
ez	-10.7445
▁صاحب	-10.7449
▁button	-10.7452
▁pleasant	-10.7453
▁جدول	-10.7453
▁مناظر	-10.7453
▁straw	-10.7453
▁سلیمان	-10.7453
▁شیشه	-10.7453
▁recall	-10.7453
▁پوشاند	-10.7454
▁بالغ	-10.7454
▁pair	-10.7455
▁ببخشید	-10.7455
▁shower	-10.7456
▁متهم	-10.7456
7	-10.7457
▁نیرو	-10.7457
▁چرخید	-10.7461
▁bur	-10.7462
▁خطاب	-10.7463
▁bu	-10.7463
▁kg	-10.7464
▁کوش	-10.7467
▁قاطع	-10.7471
▁sources	-10.7474
▁bri	-10.7475
▁amendments	-10.7475
▁charged	-10.7475
▁بخشد	-10.7477
▁رویدادها	-10.7477
▁revealed	-10.7478
▁rush	-10.748
▁reduced	-10.7481
▁mount	-10.7487
▁1990	-10.7489
▁وحشی	-10.749
▁مخالفت	-10.7493
▁implement	-10.7499
▁pot	-10.75
▁ob	-10.7501
▁delivered	-10.7503
house	-10.7508
▁sad	-10.751
▁زور	-10.751
یانا	-10.7512
▁جک	-10.752
▁affect	-10.7524
port	-10.7526
▁خوانده	-10.753
▁بنا	-10.7536
▁immediate	-10.7545
tal	-10.7549
▁murder	-10.7552
سن	-10.7553
▁traffic	-10.7558
▁alexander	-10.7558
▁innovative	-10.7558
▁permission	-10.7558
▁بخواهد	-10.7558
▁کمونیست	-10.7558
▁ethnic	-10.7558
▁جنایت	-10.7558
▁gallery	-10.7558
▁installation	-10.7559
▁فضایی	-10.7559
▁خرج	-10.7559
▁فیلتر	-10.7559
▁proposed	-10.7563
▁absolutely	-10.7566
▁camera	-10.7571
▁افسران	-10.7573
▁هیل	-10.7574
▁قطار	-10.758
▁کاهنان	-10.7581
berg	-10.7585
orno	-10.7603
▁sell	-10.7606
▁گرایی	-10.7608
▁fill	-10.761
▁سل	-10.7615
▁display	-10.7636
▁مغز	-10.7648
▁suppose	-10.7653
▁update	-10.7653
▁کال	-10.7654
▁supported	-10.7656
▁contribute	-10.766
ants	-10.7662
▁numer	-10.7664
▁external	-10.7664
▁sufficient	-10.7664
▁ارواح	-10.7664
▁اضطراری	-10.7664
▁افسانه	-10.7664
▁بیهوده	-10.7664
▁رفاه	-10.7664
▁مراحل	-10.7664
▁معرض	-10.7664
▁تعقی	-10.7664
▁بورژوازی	-10.7665
▁خاموش	-10.7665
▁righteousness	-10.7666
▁بلشویک	-10.7666
▁unfortunately	-10.7666
▁مسال	-10.7667
▁چیکار	-10.7667
▁delight	-10.7667
bil	-10.7669
▁dust	-10.7672
▁یکپارچه	-10.7674
▁paint	-10.7675
▁اعلامیه	-10.7675
▁شاخه	-10.7677
▁قربان	-10.7677
▁guarantee	-10.7677
▁سوئیس	-10.7677
▁غذاهای	-10.7681
▁احتمالی	-10.7683
▁واحدهای	-10.7684
▁جانب	-10.7687
▁produced	-10.769
▁achieved	-10.7692
مگر	-10.7692
▁telling	-10.7693
▁enable	-10.7701
▁ندید	-10.7701
▁specialists	-10.7702
▁عروسی	-10.7706
پذیر	-10.7711
▁باستانی	-10.7717
▁rating	-10.7718
▁beds	-10.7719
▁آک	-10.7724
▁امپراتوری	-10.7725
har	-10.7726
▁meat	-10.7727
▁منفی	-10.773
isation	-10.7731
▁function	-10.7742
▁fuck	-10.7744
▁غذای	-10.7747
bek	-10.7747
▁wear	-10.7748
▁receiv	-10.7753
▁whi	-10.7753
▁پاس	-10.7754
▁tent	-10.7757
▁تعهد	-10.7767
▁prior	-10.7771
▁belief	-10.7772
▁contrary	-10.7772
▁interior	-10.7772
▁minimum	-10.7772
▁personnel	-10.7772
▁translation	-10.7772
▁ocean	-10.7772
▁ببند	-10.7772
▁بازیابی	-10.7772
▁apart	-10.7772
تصل	-10.7773
▁تکنیک	-10.7773
▁مالکیت	-10.7773
▁neck	-10.7773
▁suitable	-10.7774
▁minne	-10.7774
▁فولاد	-10.7777
▁بشریت	-10.7779
▁communist	-10.7781
▁anyway	-10.7782
▁dad	-10.7782
▁masses	-10.7784
لت	-10.7789
▁حدی	-10.779
▁nur	-10.7795
▁1390	-10.7796
▁بروند	-10.7798
▁spot	-10.7799
▁wave	-10.7799
▁seed	-10.7801
▁grant	-10.7808
فو	-10.7823
▁mu	-10.7826
ably	-10.7839
▁gets	-10.7839
شو	-10.7841
▁regulations	-10.7842
دل	-10.7844
▁familiar	-10.7847
▁reforms	-10.7851
ties	-10.7854
▁همکار	-10.7857
▁روستایی	-10.7864
▁واردات	-10.7865
▁talked	-10.7878
▁competitive	-10.7879
▁helped	-10.7879
▁prefer	-10.788
▁akorda	-10.7881
▁changing	-10.7881
▁college	-10.7881
▁embassy	-10.7881
▁sacred	-10.7881
▁ایرلند	-10.7881
▁ناپدید	-10.7881
▁دوقلو	-10.7881
▁championship	-10.7881
▁valley	-10.7881
▁fool	-10.7881
▁ought	-10.7881
▁مطلق	-10.7882
▁فروخت	-10.7884
cy	-10.7884
▁ban	-10.7887
tch	-10.7888
tive	-10.7888
▁کانال	-10.7891
▁lying	-10.7892
▁handle	-10.7894
▁engineering	-10.7897
▁800	-10.7901
▁sales	-10.7903
mir	-10.791
▁debt	-10.7919
▁bio	-10.7919
▁forever	-10.792
▁touched	-10.7921
▁یادت	-10.7922
▁خوبه	-10.7924
فیلد	-10.7925
▁بینید	-10.7929
▁شنا	-10.793
can	-10.7934
شار	-10.7938
cha	-10.7939
▁سین	-10.7943
▁عر	-10.7947
کاری	-10.7948
▁contains	-10.7948
▁ze	-10.7948
▁بک	-10.795
▁ham	-10.7951
▁wash	-10.7952
▁bark	-10.7962
▁آسیا	-10.7963
▁محدوده	-10.7967
▁رقابتی	-10.7975
ld	-10.7977
▁actual	-10.7978
▁via	-10.7981
▁تاب	-10.7984
▁گی	-10.7986
▁doors	-10.7986
▁walls	-10.7989
▁ویدیو	-10.799
▁jack	-10.799
▁efficiency	-10.799
▁furniture	-10.799
▁municipal	-10.799
▁تجاوز	-10.799
▁ستایش	-10.799
▁علامت	-10.799
▁متشکرم	-10.799
▁ژنرال	-10.799
▁پرسنل	-10.799
▁italian	-10.7991
▁reward	-10.7991
▁facing	-10.7991
▁هلاک	-10.7991
▁دموکراتیک	-10.7991
▁package	-10.7991
▁divided	-10.7994
▁نداریم	-10.7996
▁speaker	-10.8001
▁پیتر	-10.8001
▁یونان	-10.8002
val	-10.8003
▁طلب	-10.8004
▁کامپیوتر	-10.8007
▁anger	-10.8007
▁دائم	-10.8007
▁امن	-10.801
▁حواس	-10.8014
▁symbol	-10.8018
▁objective	-10.8019
▁entirely	-10.802
▁نشو	-10.8021
▁جر	-10.8021
▁boys	-10.8025
▁phila	-10.8026
▁beings	-10.8028
light	-10.8032
▁explained	-10.8036
▁colleagues	-10.8049
▁courts	-10.8051
▁مقر	-10.8053
▁associations	-10.8055
غان	-10.8058
▁نیمی	-10.8064
▁solve	-10.8092
▁شاگردان	-10.8094
▁عادل	-10.8099
▁teachers	-10.8099
▁democracy	-10.8102
▁fifty	-10.8102
▁اسلحه	-10.8102
▁رفیق	-10.8102
▁وابسته	-10.8102
▁پروتکل	-10.8102
▁کارآمد	-10.8102
▁سازگار	-10.8102
6	-10.8102
▁تلقی	-10.8102
▁claim	-10.8102
▁teeth	-10.8103
▁altar	-10.8104
▁عضویت	-10.8106
▁بیاورد	-10.8107
▁اظهارات	-10.8108
ولوژی	-10.8111
▁investigation	-10.8112
چر	-10.8118
▁بلو	-10.8119
▁wo	-10.8129
خواه	-10.813
xi	-10.8139
▁تخته	-10.8148
اچ	-10.8148
▁carrying	-10.8155
▁پدرت	-10.8162
▁اشک	-10.8173
▁میخ	-10.8176
ستون	-10.8179
▁shit	-10.8185
▁monitor	-10.8185
▁fee	-10.8187
gar	-10.82
ever	-10.8201
▁india	-10.8202
▁محله	-10.8204
▁رهای	-10.8204
▁ensur	-10.8206
▁خودتان	-10.8212
▁alternative	-10.8214
▁efficient	-10.8214
▁jersey	-10.8214
▁nobody	-10.8214
▁ourselves	-10.8214
▁آواز	-10.8214
▁تضاد	-10.8214
▁مغازه	-10.8214
▁patriot	-10.8214
▁tongue	-10.8214
▁عقل	-10.8214
▁grass	-10.8215
▁collective	-10.8215
▁مطلب	-10.8217
▁dozen	-10.8217
ria	-10.8218
▁ببرد	-10.8219
▁خندید	-10.822
▁فایده	-10.822
▁realization	-10.8221
▁خواستار	-10.8224
▁error	-10.8225
▁سرگرمی	-10.8226
▁carefully	-10.8226
▁رسولان	-10.8227
ski	-10.8228
▁entrepreneurs	-10.8232
▁ابزارهای	-10.8232
▁آورید	-10.8239
▁failed	-10.8241
▁بازارهای	-10.8242
▁animal	-10.8244
▁student	-10.8244
▁شهرداری	-10.8247
سان	-10.8248
▁setting	-10.8252
▁سان	-10.8252
▁var	-10.826
▁chips	-10.8261
▁destroyed	-10.8261
▁individuals	-10.8261
▁خوابید	-10.8264
▁مدیران	-10.8266
▁push	-10.8271
▁sex	-10.8273
▁شرکتی	-10.8281
▁magic	-10.8282
▁تنگ	-10.8282
stan	-10.8292
▁obtain	-10.83
▁cook	-10.83
▁رسیدند	-10.8304
▁files	-10.8309
▁بره	-10.8312
▁شرم	-10.8313
▁accident	-10.8327
▁confident	-10.8328
▁consumption	-10.8328
▁deputies	-10.8328
▁happiness	-10.8328
▁insurance	-10.8328
▁maintenance	-10.8328
▁paradise	-10.8328
▁protocol	-10.8328
▁اسکارلت	-10.8328
▁ایلینوی	-10.8328
▁ترویج	-10.8328
▁شلوغ	-10.8328
▁عنصر	-10.8328
▁فرآور	-10.8328
▁plain	-10.8328
▁wolf	-10.8328
▁colour	-10.8328
▁اذیت	-10.8328
▁قیام	-10.8328
▁smart	-10.8328
▁scarlett	-10.8328
▁spill	-10.8328
▁flash	-10.8328
▁فیض	-10.8329
▁summit	-10.8329
▁غرور	-10.8331
iana	-10.8332
▁تعهدات	-10.8333
▁chain	-10.8334
▁پیمان	-10.8335
▁wedding	-10.8335
▁مرداد	-10.834
▁بلوک	-10.8341
▁پرده	-10.8347
▁publication	-10.8348
▁طبقات	-10.8348
▁played	-10.835
▁closer	-10.8353
hood	-10.8354
▁principle	-10.8359
▁legs	-10.8361
▁reform	-10.8361
▁centers	-10.8361
▁1995	-10.8362
▁mid	-10.8362
shed	-10.837
▁کوتاهی	-10.8372
▁officer	-10.8384
8	-10.8384
▁asking	-10.8389
▁الف	-10.8389
▁خدایان	-10.839
▁spirits	-10.8394
pur	-10.8396
▁kids	-10.8397
bed	-10.8401
▁teaching	-10.8404
▁connect	-10.8404
▁موضوعی	-10.8404
▁discover	-10.8406
خره	-10.8413
▁adjust	-10.8413
▁پلی	-10.8414
▁reveal	-10.8415
▁کات	-10.8415
▁hang	-10.8417
▁fail	-10.8418
▁mention	-10.842
▁factors	-10.8424
▁talks	-10.8432
▁دان	-10.8434
▁mari	-10.8436
▁پادشاهان	-10.8437
▁گنج	-10.8442
▁humanitarian	-10.8443
▁matthew	-10.8443
▁unexpected	-10.8443
▁جزایر	-10.8443
▁مرتکب	-10.8443
▁heritage	-10.8443
▁ثروتمند	-10.8443
▁نمک	-10.8443
▁creator	-10.8443
▁فورت	-10.8443
▁کابین	-10.8443
▁دود	-10.8444
▁ندارید	-10.8445
▁بیابان	-10.8445
▁transition	-10.8446
▁gar	-10.8446
▁selection	-10.8447
▁consideration	-10.8449
▁golden	-10.8452
▁removed	-10.8453
▁elected	-10.8455
▁determine	-10.8456
▁stable	-10.8457
▁blessing	-10.8458
▁ke	-10.846
▁معلمان	-10.846
▁measure	-10.8463
▁suffering	-10.8463
▁classes	-10.8464
▁recently	-10.8468
▁گذراند	-10.8469
▁محتوای	-10.8474
▁ابر	-10.8474
▁اندرو	-10.8474
▁challenge	-10.8476
▁instructions	-10.8476
▁manage	-10.8477
▁exercise	-10.8479
vel	-10.8483
▁attacks	-10.8484
▁selected	-10.8485
▁christians	-10.8487
vin	-10.8491
du	-10.8491
پل	-10.8492
▁عدد	-10.8499
eva	-10.8502
تولد	-10.8503
▁conf	-10.8507
▁numbers	-10.8509
▁harm	-10.8514
▁beating	-10.8525
▁سای	-10.8531
▁ملکه	-10.8534
▁سار	-10.8536
▁tools	-10.8536
▁فا	-10.854
hus	-10.8542
▁مالک	-10.8542
▁نوب	-10.8548
▁مطبوع	-10.8554
▁los	-10.8555
▁british	-10.8559
▁excuse	-10.8559
▁thirty	-10.8559
▁برانگیخت	-10.8559
▁حقایق	-10.8559
▁سوگند	-10.8559
▁دایره	-10.8559
▁یوسف	-10.8559
▁استعداد	-10.8559
▁lunch	-10.8559
▁بگوییم	-10.8559
▁taught	-10.8559
▁آنا	-10.856
▁حاکمیت	-10.8561
▁structures	-10.8562
▁adventure	-10.8563
▁79	-10.8569
▁نگرفت	-10.8574
▁انتهای	-10.8575
▁عصبانیت	-10.8578
چین	-10.8578
▁اعطا	-10.8582
ms	-10.8583
▁نده	-10.8584
▁ژان	-10.8584
▁purposes	-10.8586
▁هفتم	-10.8593
▁candidate	-10.8593
▁pour	-10.8599
▁شناس	-10.86
lorado	-10.8603
▁پرس	-10.8608
▁عربی	-10.8608
▁قطر	-10.8617
▁ناز	-10.8619
▁خطا	-10.8621
▁خونه	-10.8623
ob	-10.8624
▁مح	-10.8625
▁نر	-10.8625
▁لای	-10.8634
▁cal	-10.8637
راه	-10.864
تن	-10.864
▁buttons	-10.8653
▁گور	-10.8654
▁catch	-10.8657
▁mutual	-10.8663
▁currency	-10.8676
▁fashion	-10.8676
▁filter	-10.8676
▁variety	-10.8676
▁تخفیف	-10.8676
▁دعوا	-10.8676
▁سقف	-10.8676
▁لوئیز	-10.8677
▁combat	-10.8677
انا	-10.8677
▁ایمن	-10.8678
▁hay	-10.8678
yl	-10.868
▁santa	-10.8681
▁engaged	-10.8681
▁فوت	-10.8682
▁tackle	-10.8682
▁افشا	-10.8682
▁احیا	-10.8683
▁observed	-10.8685
▁intention	-10.8687
▁band	-10.8687
▁treaty	-10.8687
▁signal	-10.8693
▁اجباری	-10.8694
▁مزایای	-10.8696
زو	-10.8697
▁facts	-10.8705
▁گمرکی	-10.8707
▁voters	-10.8711
▁tears	-10.8714
▁rub	-10.8715
▁بکش	-10.8718
▁republican	-10.8719
▁کشیش	-10.8726
▁تنش	-10.8729
▁likely	-10.8731
▁bla	-10.8732
▁قد	-10.8736
▁کری	-10.8737
▁continues	-10.8737
لیک	-10.8747
▁مشاور	-10.8759
▁شبه	-10.8759
▁تب	-10.8765
▁مشتاق	-10.8776
بک	-10.8776
▁electric	-10.8778
▁ست	-10.8778
▁خودمان	-10.8779
▁نگهبان	-10.8785
▁خودشان	-10.8786
▁چهل	-10.8787
▁forgive	-10.8787
▁تسهیل	-10.8791
▁روان	-10.8793
▁ii	-10.8794
row	-10.8794
▁col	-10.8795
▁ویرایش	-10.8795
▁afghanistan	-10.8795
▁comprehensive	-10.8795
▁destruction	-10.8795
▁empty	-10.8795
▁yellow	-10.8795
▁لشکر	-10.8795
▁مزارع	-10.8795
▁پیرمرد	-10.8795
▁storage	-10.8796
▁جوایز	-10.8796
▁steam	-10.8796
▁سیگار	-10.8796
▁talent	-10.8796
▁گنجاند	-10.8797
▁ballot	-10.8797
▁tank	-10.8797
▁موجودی	-10.8797
▁حساس	-10.8798
▁gods	-10.8798
▁ak	-10.88
▁کارآفرینان	-10.88
▁moreover	-10.8802
▁روحانی	-10.8809
▁souls	-10.8811
▁slowly	-10.8812
▁گویید	-10.8812
▁wi	-10.8812
▁forgotten	-10.8812
▁delivery	-10.8814
▁نکردند	-10.8819
▁ارزان	-10.8819
▁intended	-10.8822
▁ابتدای	-10.8822
▁معنا	-10.8823
▁palm	-10.8831
▁fre	-10.8834
▁مهد	-10.8838
▁prisoners	-10.8838
▁assets	-10.8841
▁tar	-10.8843
▁mill	-10.8843
رم	-10.8848
ارد	-10.8849
▁خار	-10.8856
انجام	-10.886
لف	-10.8862
▁سنج	-10.8872
ناع	-10.8877
▁signs	-10.8878
▁ترسم	-10.8879
▁noise	-10.888
▁جین	-10.8889
▁ساختن	-10.8894
▁دیسک	-10.8901
رها	-10.8902
des	-10.8909
▁liquid	-10.8914
▁بیت	-10.8915
▁assist	-10.8916
▁agencies	-10.8916
▁courage	-10.8916
▁سواحل	-10.8916
▁قرآن	-10.8916
▁محاکمه	-10.8916
▁آهسته	-10.8916
▁senate	-10.8916
▁وجدان	-10.8916
▁reduction	-10.8916
▁وزرا	-10.8916
ju	-10.8917
▁بهادار	-10.8917
▁sustainable	-10.8917
▁kick	-10.8918
▁مراکش	-10.8919
▁ears	-10.8921
▁tired	-10.8923
▁تاسیسات	-10.8925
▁کارمندان	-10.8925
دور	-10.8927
▁spare	-10.893
▁شاه	-10.8932
▁risks	-10.8933
▁بنده	-10.8937
▁humanity	-10.8937
▁خوان	-10.8942
▁سانتی	-10.8948
▁خاکستری	-10.8951
▁دوستانه	-10.8952
▁certificate	-10.8954
▁conclusion	-10.8954
▁bird	-10.8954
▁performed	-10.896
گرن	-10.8971
▁par	-10.8973
▁pal	-10.8973
▁جیب	-10.8975
▁statements	-10.8978
▁laugh	-10.898
▁برگه	-10.8981
zhan	-10.8981
▁بیو	-10.8995
▁tourist	-10.9001
بور	-10.9001
▁غریب	-10.9005
▁ارتباطی	-10.9007
▁بندر	-10.9009
▁سنا	-10.9012
▁wished	-10.9015
▁مباد	-10.9018
ریبان	-10.9018
▁متنفر	-10.9021
▁disc	-10.9024
cent	-10.9029
▁favor	-10.9033
بات	-10.9033
▁mortal	-10.9036
▁secure	-10.9037
▁honour	-10.9038
▁اشیائ	-10.9038
▁فروردین	-10.9038
▁وحدت	-10.9038
▁throne	-10.9038
▁خیانت	-10.9038
▁فوتبال	-10.9038
▁shock	-10.9038
▁candle	-10.9039
▁میانگین	-10.9039
▁tower	-10.9042
▁massac	-10.9043
▁مهاجرت	-10.9043
▁ببرند	-10.9044
▁طرفدار	-10.9047
▁acting	-10.9048
▁sco	-10.905
bayev	-10.9053
▁حافظه	-10.9056
▁islands	-10.9058
▁maxim	-10.9059
▁پیشگیری	-10.906
lon	-10.9064
▁خداست	-10.9064
▁greatest	-10.9064
▁consequences	-10.9065
▁زمستان	-10.9067
▁معدن	-10.9069
▁صحیح	-10.9069
▁دوید	-10.9072
▁تابستانی	-10.9074
▁articles	-10.9076
▁citizen	-10.9078
▁لایه	-10.9087
▁mat	-10.9097
▁inner	-10.91
▁wing	-10.9101
▁372	-10.9103
▁gather	-10.9105
▁فلسطینی	-10.9107
▁collect	-10.9124
▁shake	-10.9125
▁anna	-10.9126
▁effects	-10.9126
▁بخور	-10.9127
lov	-10.9128
▁roads	-10.9143
rac	-10.9144
▁fan	-10.9149
▁soft	-10.915
▁beg	-10.9151
▁recover	-10.9153
ological	-10.9154
▁gi	-10.916
▁submit	-10.9161
▁pocket	-10.9161
▁respond	-10.9161
▁ازبکستان	-10.9161
▁اشتیاق	-10.9161
▁اصرار	-10.9161
▁صعود	-10.9161
▁متعهد	-10.9161
▁مشکوک	-10.9161
▁منصوب	-10.9161
▁جبران	-10.9161
▁climb	-10.9161
▁amazing	-10.9161
▁honey	-10.9162
▁آزمون	-10.9162
▁کانادا	-10.9162
▁commitment	-10.9163
▁arise	-10.9163
▁kiev	-10.9163
▁dangerous	-10.9163
▁decree	-10.9164
▁توهین	-10.9164
▁شعار	-10.9167
▁سلول	-10.9167
▁reads	-10.9168
je	-10.9168
▁blessed	-10.9177
▁اعتباری	-10.9178
▁خدمتکار	-10.9181
▁apple	-10.9183
▁وست	-10.9183
▁lamb	-10.9184
▁بدهید	-10.9184
▁بدو	-10.9184
▁arch	-10.9184
▁کریمه	-10.9185
▁trick	-10.9188
لز	-10.9191
▁preach	-10.9192
▁مسیرهای	-10.9192
▁جزئی	-10.9193
▁مسیحیان	-10.9196
▁1999	-10.9204
▁spite	-10.9205
▁rat	-10.9205
▁کاز	-10.9207
▁becoming	-10.9209
▁defender	-10.9212
jo	-10.9213
▁دستی	-10.9214
▁improv	-10.9214
use	-10.9215
▁ریخت	-10.9217
▁pr	-10.923
ola	-10.9236
▁دوستم	-10.9239
▁اسپا	-10.924
▁افراطی	-10.9241
▁بریم	-10.9243
ther	-10.9246
din	-10.925
▁tall	-10.9253
▁cart	-10.9255
▁confirm	-10.9256
ack	-10.9259
▁threats	-10.9261
▁حسن	-10.9262
▁مارک	-10.9268
mark	-10.9275
▁remove	-10.9276
▁بز	-10.9286
▁pure	-10.9286
▁barcelona	-10.9286
▁knock	-10.9286
▁shadow	-10.9286
▁solomon	-10.9286
▁آموخت	-10.9286
▁بشردوست	-10.9286
▁موعظه	-10.9286
▁نوآورانه	-10.9286
▁consent	-10.9286
▁weekend	-10.9286
▁استرالیا	-10.9286
▁سرپرست	-10.9286
▁هوشیار	-10.9287
▁creative	-10.9287
▁obey	-10.9287
▁مبلمان	-10.9288
▁root	-10.9289
▁hostel	-10.9289
▁نقلیه	-10.9289
▁hunt	-10.929
hrew	-10.929
▁سازنده	-10.929
▁اقامتگاه	-10.9292
▁توست	-10.9293
▁extremely	-10.9293
ches	-10.9294
▁برعکس	-10.9299
▁recognize	-10.93
▁drawn	-10.9301
▁released	-10.9303
▁بتوانیم	-10.9303
▁participated	-10.9303
▁coach	-10.9306
▁viewing	-10.9313
▁کرا	-10.9322
hu	-10.9324
▁patient	-10.933
▁finger	-10.933
▁بت	-10.9331
کول	-10.9333
▁گاه	-10.9334
▁passion	-10.9335
met	-10.9344
▁شا	-10.9345
▁زندانی	-10.9356
تامین	-10.9359
▁روحی	-10.9364
▁وار	-10.9378
▁functions	-10.9384
▁repeat	-10.9385
▁publish	-10.9385
▁intend	-10.9385
▁val	-10.9387
lat	-10.9388
▁ter	-10.9404
fer	-10.9409
▁دونی	-10.941
▁aktobe	-10.9413
▁australia	-10.9413
▁concrete	-10.9413
▁easier	-10.9413
▁politics	-10.9413
▁حیاط	-10.9413
▁ظروف	-10.9413
▁موشک	-10.9413
▁عمق	-10.9414
▁theres	-10.9417
ans	-10.9419
▁lock	-10.9421
▁ride	-10.9422
▁نوشتن	-10.9422
▁ببینند	-10.9426
▁declare	-10.9428
▁تنظیمات	-10.9434
ym	-10.9445
drew	-10.9445
▁minor	-10.9446
▁journalists	-10.9449
▁خروجی	-10.9449
▁debate	-10.9451
▁جنگی	-10.9452
▁device	-10.9458
▁اینجاست	-10.9459
▁believes	-10.946
gy	-10.9468
▁یکبار	-10.9479
▁directed	-10.9481
board	-10.9484
▁chairs	-10.9487
▁dig	-10.9499
▁یر	-10.9499
▁تحقیقاتی	-10.9501
▁pop	-10.9509
▁هل	-10.951
جه	-10.9512
▁نیستید	-10.952
▁yo	-10.9527
▁جانبی	-10.953
▁بگذر	-10.9535
▁110	-10.9537
▁bourgeois	-10.954
▁uncle	-10.9541
▁negative	-10.9541
▁unknown	-10.9541
▁آویزان	-10.9541
▁خالق	-10.9541
▁دیمیتری	-10.9541
▁ضبط	-10.9541
▁مطالعات	-10.9541
▁desert	-10.9541
▁آکتوب	-10.9541
▁ثمر	-10.9541
▁یادبود	-10.9541
▁entitl	-10.9541
▁جبهه	-10.9541
▁موعد	-10.9541
▁intellectual	-10.9541
▁movie	-10.9541
▁solid	-10.9542
▁dropped	-10.9542
▁winning	-10.9542
▁bitten	-10.9542
▁صوتی	-10.9542
▁tennis	-10.9542
ii	-10.9543
▁زرد	-10.9543
▁بخواهید	-10.9543
▁لرزید	-10.9545
▁استراتژیک	-10.9549
▁follows	-10.955
tel	-10.9551
▁فانی	-10.9552
▁نداشتم	-10.9555
▁grown	-10.9555
log	-10.9556
▁اهل	-10.9557
▁عمده	-10.9557
▁capable	-10.9557
▁feelings	-10.9558
▁قابلیت	-10.9559
▁تنیس	-10.9571
ress	-10.9575
اخر	-10.9575
▁painting	-10.9578
▁بگیری	-10.9582
▁regulation	-10.9589
▁خواستند	-10.9589
▁خلاف	-10.9591
▁kur	-10.9603
lf	-10.9604
▁flu	-10.9604
lm	-10.9607
▁دانه	-10.9615
▁heavens	-10.9619
▁تصادفی	-10.9622
▁چوبی	-10.9626
▁lips	-10.963
خواهی	-10.9634
▁willing	-10.9642
▁بوت	-10.9643
گیر	-10.965
▁بپرس	-10.9652
▁arrive	-10.966
▁التحصیل	-10.966
▁قدر	-10.9664
ara	-10.9664
▁مخ	-10.9667
▁operate	-10.9667
لزم	-10.9671
▁background	-10.9671
▁conscience	-10.9671
▁orthodox	-10.9671
▁stream	-10.9671
▁ultimate	-10.9671
▁آکوردا	-10.9671
▁اختراع	-10.9671
▁انتقام	-10.9671
▁انحصار	-10.9671
▁ترکمنستان	-10.9671
▁croatia	-10.9671
▁تمدن	-10.9671
فزایند	-10.9671
▁aaron	-10.9671
▁spanish	-10.9671
▁پطر	-10.9672
▁reconstruction	-10.9672
▁تلخ	-10.9672
▁قضایی	-10.9672
▁priority	-10.9674
▁حب	-10.9674
▁صادقانه	-10.9674
▁slave	-10.9674
▁saul	-10.9675
▁دانشمندان	-10.9676
▁پرنده	-10.9681
▁scheduled	-10.9681
▁اعظم	-10.9682
▁نزن	-10.9682
▁andrew	-10.9683
▁charter	-10.9684
▁تصویری	-10.9685
▁busy	-10.9686
▁sep	-10.9686
▁روبه	-10.9692
▁نوبت	-10.9695
▁awarded	-10.9697
▁1997	-10.9701
▁1391	-10.9705
یوس	-10.971
▁کیست	-10.9711
▁relative	-10.9719
▁victims	-10.9727
▁چاه	-10.9728
▁دستانش	-10.9734
▁گردن	-10.9736
▁سول	-10.9747
▁remembered	-10.9749
zo	-10.975
▁seeking	-10.9753
▁ur	-10.9756
▁stars	-10.9763
▁دمای	-10.9763
anov	-10.9774
▁اص	-10.9776
▁stress	-10.9776
▁مربی	-10.9788
▁سری	-10.9792
▁songs	-10.9795
ئه	-10.9796
com	-10.9798
▁496	-10.9802
▁defeat	-10.9803
▁defence	-10.9803
▁feast	-10.9803
▁illegal	-10.9803
▁majilis	-10.9803
▁somebody	-10.9803
▁vitamins	-10.9803
▁بعضی	-10.9803
▁mankind	-10.9803
▁الاغ	-10.9803
▁جیمز	-10.9803
▁بیچاره	-10.9803
▁پراکند	-10.9803
▁alaba	-10.9803
▁میکنه	-10.9804
▁blog	-10.9804
▁بانوی	-10.9806
▁prophets	-10.9807
قره	-10.9811
▁initiat	-10.9812
▁whoever	-10.9813
rist	-10.9819
▁بازرگانی	-10.982
▁لس	-10.9828
▁spheres	-10.9829
▁glance	-10.9831
▁confirmed	-10.9832
▁actively	-10.9835
▁وفادار	-10.9842
▁تخصص	-10.9842
▁custom	-10.9843
▁گار	-10.9846
▁کاشت	-10.9849
▁enterprise	-10.9853
cal	-10.9856
▁مادرم	-10.9861
▁summ	-10.9866
▁راهنمای	-10.9869
▁خر	-10.9872
▁engine	-10.9875
▁peasants	-10.9876
فل	-10.9879
▁160	-10.9884
istic	-10.9884
▁بدم	-10.9885
▁هارون	-10.9885
burg	-10.9885
▁تورم	-10.9888
most	-10.9889
باما	-10.9901
▁پارلمانی	-10.9902
▁arrest	-10.9908
▁positions	-10.991
▁تق	-10.9917
bel	-10.9921
▁sharp	-10.9923
▁proper	-10.9924
▁آشنای	-10.9926
▁بخوان	-10.993
▁branch	-10.993
▁تعلی	-10.9934
▁permit	-10.9935
▁brethren	-10.9936
▁england	-10.9936
▁eventually	-10.9936
▁liberal	-10.9936
▁province	-10.9936
▁statistics	-10.9936
▁انگلستان	-10.9936
▁بفرست	-10.9936
▁تدریج	-10.9936
▁حاشیه	-10.9936
▁مستقر	-10.9936
▁مصمم	-10.9936
▁اسفند	-10.9936
▁مقیاس	-10.9936
▁استدلال	-10.9936
▁trading	-10.9936
▁resistance	-10.9936
▁ردیف	-10.9936
▁وکیل	-10.9937
▁ملکوت	-10.9938
▁مرجع	-10.9938
▁شفاف	-10.9938
▁professor	-10.9938
▁کلاسیک	-10.994
▁حاد	-10.9941
▁copy	-10.9941
▁bigge	-10.9947
▁آورند	-10.9948
▁figures	-10.995
▁pointed	-10.9954
▁نخ	-10.9965
دیا	-10.9971
▁حکمت	-10.9971
ius	-10.9976
▁prospects	-10.9976
▁دورتر	-10.9978
▁blame	-10.998
▁کمپ	-10.9983
▁بازرسی	-10.9984
▁فروشی	-10.9987
▁organisation	-10.9989
enko	-10.999
are	-10.9992
▁کپی	-10.9992
▁کالاهای	-10.9995
▁بستر	-10.9998
▁seal	-10.9999
▁focused	-10.9999
▁mood	-11.0001
2	-11.0007
منتظره	-11.0011
▁تماشای	-11.0011
▁score	-11.0011
▁mag	-11.0015
▁nazi	-11.0026
▁fate	-11.0028
▁ببر	-11.0029
▁mn	-11.0031
▁همگی	-11.0038
▁زمستانی	-11.0039
ram	-11.0044
▁نش	-11.0047
نتو	-11.0051
ایا	-11.0058
▁لزوم	-11.0059
▁celebrate	-11.006
▁careful	-11.0062
▁کودکی	-11.0067
▁images	-11.0067
▁contain	-11.007
▁stupid	-11.0071
▁شائول	-11.0071
▁کرواسی	-11.0071
▁cheap	-11.0071
▁عاقل	-11.0071
▁shining	-11.0071
▁ندرت	-11.0071
▁مناقش	-11.0071
▁securities	-11.0071
▁مکرر	-11.0071
▁مقدم	-11.0072
▁roof	-11.0072
▁مدرک	-11.0072
▁supporting	-11.0072
▁سانتا	-11.0073
▁تجربیات	-11.0073
▁تحریم	-11.0073
▁تعمید	-11.0073
▁toilet	-11.0074
▁reaction	-11.0076
▁brain	-11.0076
▁award	-11.0077
▁احمقانه	-11.0078
▁cars	-11.0079
▁جورج	-11.008
▁suite	-11.0081
▁پرسش	-11.0087
▁bat	-11.009
▁مردگان	-11.0092
▁upper	-11.0092
▁earn	-11.0093
▁ارم	-11.0094
▁uk	-11.0097
▁detail	-11.0097
▁fold	-11.0097
▁سالگی	-11.0098
▁scientists	-11.0099
▁stronger	-11.01
▁chi	-11.0101
▁belt	-11.0102
ky	-11.0102
فورد	-11.0105
▁استثنای	-11.0112
▁rec	-11.0114
▁answers	-11.0117
▁سور	-11.0118
▁اه	-11.012
▁بهتری	-11.012
▁پت	-11.0121
▁بوک	-11.0122
▁زدم	-11.0124
▁پال	-11.0126
▁vehicles	-11.0128
▁gon	-11.0135
▁server	-11.0139
▁sheet	-11.0142
ولی	-11.0142
rk	-11.0147
▁kid	-11.0157
▁استخوان	-11.0159
like	-11.0162
chi	-11.0163
▁بهار	-11.0165
▁دعای	-11.0165
van	-11.0172
▁directors	-11.0172
tting	-11.0172
▁اهدا	-11.0173
انید	-11.0181
rah	-11.0182
▁صدایی	-11.0183
▁بیاور	-11.0189
rov	-11.0189
▁obvious	-11.0195
▁exact	-11.0195
if	-11.0198
▁lithuania	-11.0198
▁sentence	-11.0199
▁مطل	-11.0202
▁ash	-11.0207
▁leads	-11.0207
▁occur	-11.0208
▁champion	-11.0208
▁categories	-11.0208
▁counsel	-11.0208
▁fifth	-11.0208
▁situated	-11.0208
▁terrible	-11.0208
▁uzbekistan	-11.0208
▁تفسیر	-11.0208
▁فاجعه	-11.0208
▁معادل	-11.0208
▁مکاشف	-11.0208
▁کریسمس	-11.0208
▁یونسکو	-11.0208
▁entities	-11.0208
▁operator	-11.0208
▁reference	-11.0208
▁باهوش	-11.0208
▁charles	-11.0208
▁دبیرکل	-11.0209
▁نتوان	-11.0209
▁sugar	-11.0209
▁دانا	-11.0209
▁completion	-11.0209
▁vegas	-11.0209
▁allocated	-11.021
▁determination	-11.021
اتمام	-11.0211
▁آزمایشگاه	-11.0212
▁نماز	-11.0212
bra	-11.0218
▁concluded	-11.0219
aries	-11.0219
▁شکاف	-11.0223
▁درمانی	-11.0225
▁damn	-11.0225
▁700	-11.023
▁item	-11.0234
▁fulfilled	-11.0235
▁گذاشتن	-11.0235
▁نازک	-11.0237
▁نتوانستم	-11.0247
▁بیماران	-11.025
▁sergey	-11.025
▁الملل	-11.0253
نز	-11.0254
over	-11.0259
▁healthy	-11.0261
▁stranger	-11.0263
▁apostles	-11.0263
▁disease	-11.0263
▁aspects	-11.0266
▁teams	-11.0273
4	-11.0276
▁رویاهای	-11.0276
▁وگاس	-11.0284
▁درصدی	-11.0285
with	-11.029
▁تاج	-11.0297
اکی	-11.0302
▁favour	-11.0304
▁demands	-11.0312
▁heating	-11.0314
مار	-11.0315
▁بشنو	-11.0321
▁fix	-11.0321
▁trans	-11.0329
▁نگفت	-11.0329
▁parliamentar	-11.0331
serving	-11.0336
▁provisions	-11.0336
▁refuse	-11.0336
▁posts	-11.0339
▁universities	-11.0347
▁اثبات	-11.0347
▁تثبیت	-11.0347
▁تیرانداز	-11.0347
▁condemn	-11.0347
▁متنوع	-11.0347
▁معاهده	-11.0347
▁بگم	-11.0347
▁شکنجه	-11.0347
▁قطب	-11.0347
▁greek	-11.0347
▁steal	-11.0347
▁hor	-11.0347
▁clinic	-11.0347
▁اندوه	-11.0347
▁pride	-11.0348
▁polish	-11.0348
▁تفنگ	-11.0348
ایف	-11.0349
▁گرسنگی	-11.0349
▁fence	-11.0349
▁خرداد	-11.035
▁بذار	-11.035
▁دبیر	-11.035
▁concerns	-11.0351
▁overall	-11.0351
▁bigger	-11.0353
▁procedures	-11.0354
▁بزنید	-11.0355
لند	-11.0356
▁نکنیم	-11.0361
▁آرک	-11.0363
▁کسر	-11.0363
▁مسافر	-11.0364
▁repeated	-11.0364
▁وقفه	-11.0364
▁تخمین	-11.0366
▁ببینیم	-11.0368
▁cu	-11.0368
▁shine	-11.0369
▁ناامیدی	-11.0372
wh	-11.0372
▁89	-11.0373
▁penny	-11.0374
▁سیار	-11.0377
▁متری	-11.038
nie	-11.0382
ose	-11.0383
ax	-11.0383
▁fucking	-11.0385
رات	-11.0387
▁institution	-11.0389
▁bare	-11.0391
▁سنگی	-11.0395
▁پان	-11.0396
▁قبر	-11.0403
cur	-11.0403
▁muslim	-11.0404
▁nutrient	-11.0404
▁feature	-11.0404
▁flight	-11.0405
▁گیرم	-11.041
▁sleeping	-11.0434
▁هاست	-11.0436
▁gal	-11.044
▁nd	-11.0449
▁faces	-11.045
▁مول	-11.0465
▁پسرم	-11.0467
ونگ	-11.0468
▁integrat	-11.047
shi	-11.0471
▁نگار	-11.0476
▁دیو	-11.0476
▁confess	-11.0476
▁دهقان	-11.0476
▁schedule	-11.0477
▁ماری	-11.048
▁محاسب	-11.0483
▁commit	-11.0486
▁advertising	-11.0488
▁chicken	-11.0488
▁expansion	-11.0488
▁lecture	-11.0488
▁necessity	-11.0488
▁occupied	-11.0488
▁significance	-11.0488
▁specified	-11.0488
▁turkmenistan	-11.0488
▁خاورمیانه	-11.0488
▁صحرا	-11.0488
▁عذاب	-11.0488
▁مخصوص	-11.0488
▁depth	-11.0488
▁japanese	-11.0488
▁unesco	-11.0488
▁ظریف	-11.0488
▁اخراج	-11.0488
▁christmas	-11.0488
▁تازگی	-11.0488
▁outcome	-11.0488
▁architecture	-11.0488
▁ترسناک	-11.0488
▁criticism	-11.0488
▁simon	-11.0488
▁شمارش	-11.0488
▁bourgeoisie	-11.0489
▁begun	-11.0489
▁passport	-11.0489
▁leap	-11.0489
▁ایتالیایی	-11.0489
▁سرکوب	-11.049
▁هویت	-11.0491
▁کاترین	-11.0491
▁بیاورید	-11.0491
▁passing	-11.0492
▁180	-11.0497
▁recovery	-11.0498
▁مدال	-11.0498
▁horses	-11.0499
▁ki	-11.0502
▁بگذارند	-11.0502
▁دیدی	-11.0507
▁shares	-11.0511
▁140	-11.0511
▁پیامبر	-11.0513
▁afterwards	-11.0514
ich	-11.0514
▁تست	-11.0516
▁دستیار	-11.0519
▁1996	-11.0523
mate	-11.0523
▁ریخته	-11.0531
▁launched	-11.0532
▁کارشناس	-11.0534
▁components	-11.0535
▁printing	-11.0536
▁روستای	-11.0536
ette	-11.0537
گون	-11.0538
▁nov	-11.054
▁mistake	-11.054
اسیون	-11.0541
لد	-11.0541
▁آپ	-11.0545
▁client	-11.0548
▁route	-11.0548
sel	-11.0554
▁قاب	-11.0554
▁سوئد	-11.0555
▁pipe	-11.0557
▁نکردم	-11.0559
توس	-11.0561
صرف	-11.0565
▁بردار	-11.0567
▁usd	-11.0571
room	-11.0571
دولتی	-11.0572
▁rains	-11.0576
ei	-11.0577
▁سرزمینی	-11.0578
dar	-11.0582
اکس	-11.0584
مانده	-11.0586
▁ظاهری	-11.059
bal	-11.0592
▁نیک	-11.0596
▁brief	-11.0602
▁کمد	-11.0605
▁governments	-11.0606
▁سیب	-11.0607
▁hol	-11.0608
نال	-11.0608
▁bak	-11.0614
▁observe	-11.0614
▁نبی	-11.0616
خان	-11.0617
▁introduce	-11.062
▁starts	-11.0621
▁sounds	-11.0622
▁utter	-11.0626
▁صادق	-11.0628
▁هنگ	-11.0631
▁academic	-11.0631
▁behalf	-11.0631
▁devoted	-11.0631
▁financing	-11.0631
▁fortune	-11.0631
▁inflation	-11.0631
▁اجلاس	-11.0631
▁تسلط	-11.0631
▁ذخایر	-11.0631
▁راهپیمایی	-11.0631
▁مذاکره	-11.0631
▁rostov	-11.0631
▁shift	-11.0631
▁availability	-11.0631
▁inhabitants	-11.0631
▁loving	-11.0631
▁الحاق	-11.0631
رفع	-11.0632
▁distribution	-11.0632
▁punishment	-11.0632
▁plot	-11.0632
▁attractive	-11.0633
▁unlike	-11.0634
▁unions	-11.0634
▁bitter	-11.0635
▁شوک	-11.0638
▁مسلمانان	-11.0638
▁حیاتی	-11.0639
▁کشیدن	-11.0648
▁دستاوردهای	-11.0652
▁critical	-11.0657
▁مردمی	-11.0658
▁tip	-11.0663
▁عکاسی	-11.0664
▁owner	-11.0667
▁گفتگوی	-11.0669
▁آوردم	-11.0673
▁mil	-11.0676
▁مری	-11.0678
▁holidays	-11.0684
mond	-11.0684
ker	-11.0685
▁اروپای	-11.0688
▁relation	-11.0694
▁بینند	-11.0699
▁pin	-11.0704
▁mighty	-11.0718
ura	-11.0723
▁pulled	-11.0727
فرم	-11.0728
▁letters	-11.0732
▁تخصصی	-11.0733
▁کارم	-11.0736
گز	-11.0736
▁صف	-11.0737
▁تل	-11.0737
▁کمان	-11.0738
▁hide	-11.0752
سیاره	-11.0752
▁شست	-11.0758
▁den	-11.0762
▁righteous	-11.0774
عکس	-11.0775
▁deserve	-11.0776
▁destination	-11.0776
▁incident	-11.0776
▁judici	-11.0776
▁league	-11.0776
▁manufacturing	-11.0776
▁sargsyan	-11.0776
▁satisfaction	-11.0776
▁signature	-11.0776
▁testament	-11.0776
▁treasure	-11.0776
▁زباله	-11.0776
▁ضرر	-11.0776
▁متمایز	-11.0776
▁latter	-11.0776
▁هدایای	-11.0776
▁وبلاگ	-11.0776
▁gdp	-11.0776
▁output	-11.0776
▁آستین	-11.0776
▁smoke	-11.0776
▁برگزید	-11.0776
▁instance	-11.0776
▁tonight	-11.0776
▁امشب	-11.0776
▁بالقوه	-11.0776
▁departure	-11.0776
▁communicate	-11.0776
▁unclean	-11.0778
▁بمانند	-11.0778
▁remark	-11.0779
▁surrounding	-11.0779
▁مکانیسم	-11.078
▁علیوا	-11.0782
▁ماجرا	-11.0783
▁لوکس	-11.0784
▁hello	-11.0784
▁fulfill	-11.0787
▁روشنایی	-11.0787
ita	-11.0787
▁مرزهای	-11.0791
▁angels	-11.0793
▁زندانیان	-11.0795
▁rejected	-11.0797
▁مریم	-11.0802
▁monte	-11.0804
تال	-11.0807
▁sail	-11.0809
▁یوش	-11.0812
▁عل	-11.0814
▁faithful	-11.0819
▁تبلیغاتی	-11.082
rag	-11.0826
▁افراط	-11.0828
▁شهرت	-11.0829
▁مطبوعات	-11.0835
▁نبودند	-11.0837
▁reservation	-11.0839
▁circle	-11.0839
▁businesses	-11.0839
▁happening	-11.0843
▁traditions	-11.0844
▁daughters	-11.0846
▁خاطرات	-11.0847
▁تونی	-11.085
▁kh	-11.0854
▁diseases	-11.0864
water	-11.0867
▁carrie	-11.0868
▁jan	-11.0868
▁devices	-11.0871
▁tenn	-11.0874
▁سازمانی	-11.0882
ong	-11.0888
ral	-11.0895
▁ساحلی	-11.0902
▁تلاشش	-11.0902
ارا	-11.0902
▁مثلا	-11.0905
▁severe	-11.0907
▁102	-11.0912
▁generally	-11.0915
▁withdraw	-11.0916
▁پستی	-11.0917
▁مبنای	-11.0917
▁شکلی	-11.0918
var	-11.0921
▁exclusive	-11.0923
▁extremist	-11.0923
▁yield	-11.0923
▁باشکوه	-11.0923
▁تخلیه	-11.0923
▁تفاهم	-11.0923
▁سرکیسیان	-11.0923
▁عصبی	-11.0923
▁قفقاز	-11.0923
▁کمبود	-11.0923
▁afternoon	-11.0923
▁خلیج	-11.0923
▁نداره	-11.0923
▁convenient	-11.0923
▁حامل	-11.0923
▁رسند	-11.0923
▁گرمایش	-11.0923
▁نکات	-11.0923
▁لاتین	-11.0923
▁برسیم	-11.0923
▁dining	-11.0923
▁آنهاست	-11.0923
▁خوار	-11.0923
انوف	-11.0924
▁loose	-11.0924
▁northern	-11.0924
▁vital	-11.0924
▁latin	-11.0924
▁معناست	-11.0924
▁قبیل	-11.0927
▁medal	-11.0929
▁جمی	-11.0929
▁assistant	-11.093
▁تنسی	-11.093
▁پاپ	-11.0933
▁آتی	-11.0934
▁شاخ	-11.0939
▁دومی	-11.0939
▁deny	-11.0941
▁situations	-11.0945
▁reply	-11.0946
▁جنگید	-11.0953
▁briefing	-11.0953
اخ	-11.0954
▁depends	-11.0955
▁seriously	-11.096
▁losing	-11.0961
▁ادعای	-11.0961
pen	-11.0962
▁پزشک	-11.0964
▁1992	-11.0966
▁tool	-11.0968
▁بازگرداند	-11.0974
▁130	-11.0976
▁لعنت	-11.0978
وادار	-11.098
▁accounts	-11.0982
▁miles	-11.0983
▁achievements	-11.0984
▁کاربردی	-11.0994
کالسک	-11.1
lot	-11.1001
▁محور	-11.1006
▁petr	-11.101
point	-11.1014
▁چشمگیر	-11.1022
q	-11.1026
▁shoes	-11.1026
▁sink	-11.1027
▁stations	-11.104
▁indicate	-11.1041
▁towns	-11.1047
▁bel	-11.105
▁missed	-11.1058
ولا	-11.106
▁appreciate	-11.1061
▁estimate	-11.1061
▁rod	-11.1064
▁driving	-11.1072
▁messenger	-11.1072
▁palestinian	-11.1072
▁vacation	-11.1072
▁violent	-11.1072
▁بپذیرد	-11.1072
▁جوامع	-11.1072
▁دیجیتال	-11.1072
▁کثیف	-11.1072
▁ملایم	-11.1072
▁آفرید	-11.1072
▁sample	-11.1072
▁بوسید	-11.1072
▁discount	-11.1072
▁غمگین	-11.1072
uc	-11.1072
▁مستمر	-11.1073
▁پدید	-11.1073
▁جلد	-11.1073
▁household	-11.1073
▁approximately	-11.1074
▁shame	-11.1077
▁ruin	-11.1077
▁cutting	-11.1077
رکو	-11.1079
▁بومی	-11.108
▁sought	-11.108
▁refused	-11.1084
سکا	-11.1084
▁fallen	-11.1084
▁بداند	-11.1087
essee	-11.1088
▁کوچکتر	-11.1089
▁attempts	-11.109
▁ببخش	-11.1093
ژن	-11.1094
▁wishes	-11.1096
▁bay	-11.1102
▁detailed	-11.1103
▁چرخش	-11.1104
▁wearing	-11.1113
▁stones	-11.1114
wi	-11.1114
▁دوستش	-11.1121
▁منطقی	-11.1122
▁صفر	-11.1124
▁تصادف	-11.1129
don	-11.113
نگی	-11.1137
▁peasant	-11.1139
▁tend	-11.1144
▁limb	-11.1145
▁leaves	-11.1146
▁عز	-11.1153
▁mini	-11.116
▁گرما	-11.116
▁charges	-11.1167
▁patients	-11.1171
▁نیکی	-11.1176
▁claims	-11.1184
▁haven	-11.1187
▁عموم	-11.119
▁امان	-11.1193
▁زو	-11.1197
▁بزن	-11.1199
▁organiz	-11.1202
▁ark	-11.1204
wn	-11.1204
ford	-11.1206
▁lt	-11.1207
▁آندری	-11.1209
▁honest	-11.121
▁کنت	-11.1215
▁extent	-11.1223
▁intelligence	-11.1223
▁literature	-11.1223
▁nevertheless	-11.1223
▁switzerland	-11.1223
▁yourselves	-11.1223
▁ترافیک	-11.1223
▁رفقا	-11.1223
▁identify	-11.1223
▁venture	-11.1223
▁render	-11.1223
▁ادبیات	-11.1223
▁alliance	-11.1223
▁سراغ	-11.1223
▁royal	-11.1223
▁stalin	-11.1224
▁rural	-11.1224
▁ظلم	-11.1224
▁orange	-11.1224
▁failure	-11.1224
▁duties	-11.1224
▁repent	-11.1224
▁tension	-11.1224
▁com	-11.1225
▁بدیهی	-11.1225
▁archive	-11.1225
▁اسپانیایی	-11.1225
▁missile	-11.1225
▁عیب	-11.1225
▁مجری	-11.1225
▁داود	-11.1226
▁کیفری	-11.1228
▁رومانی	-11.1228
▁kaz	-11.1234
▁personality	-11.1235
▁استوار	-11.1236
▁پزشکان	-11.1236
▁mess	-11.1236
▁مسکونی	-11.1237
▁صاحبان	-11.1239
▁possession	-11.1239
یسه	-11.124
ache	-11.124
bas	-11.1241
▁قرضه	-11.1242
▁shouldn	-11.1246
▁surprised	-11.1248
ریز	-11.1249
▁suffered	-11.125
▁برید	-11.1252
▁کفش	-11.1253
▁بیستم	-11.1254
▁معین	-11.1256
▁1917	-11.1261
▁pushing	-11.1263
▁stu	-11.1264
▁warn	-11.1268
▁forty	-11.1274
▁kinds	-11.1276
▁زنند	-11.1283
▁تفریحی	-11.1284
بوس	-11.129
▁skill	-11.1295
▁flowers	-11.1301
▁creatures	-11.1301
سیا	-11.1303
▁bro	-11.1304
▁انگیزی	-11.1304
اسه	-11.1308
▁princess	-11.1308
خلاف	-11.1318
▁greatly	-11.1327
press	-11.1338
ساز	-11.134
▁یهود	-11.134
etts	-11.1341
oth	-11.1349
▁مترو	-11.1352
▁korea	-11.1361
▁rapid	-11.1364
▁قسم	-11.1366
▁austria	-11.1367
▁pit	-11.1367
▁معجز	-11.1372
ختخواب	-11.1374
▁transform	-11.1375
ient	-11.1376
▁diploma	-11.1376
▁britain	-11.1377
▁celebration	-11.1377
▁emperor	-11.1377
▁houston	-11.1377
▁identity	-11.1377
▁recognition	-11.1377
▁survive	-11.1377
▁vibration	-11.1377
▁سیگنال	-11.1377
▁غیرنظامی	-11.1377
▁مجارستان	-11.1377
▁مشهور	-11.1377
▁لحن	-11.1377
▁موانع	-11.1377
▁رقم	-11.1377
▁gratitude	-11.1377
▁adapt	-11.1377
▁ماکسیم	-11.1377
▁angry	-11.1377
▁expectations	-11.1377
▁spouse	-11.1377
▁برساند	-11.1377
▁ماجراجویی	-11.1377
▁beloved	-11.1377
▁هکتار	-11.1377
▁pension	-11.1377
▁روستوف	-11.1377
▁enforcement	-11.1378
▁آنجلس	-11.1378
▁بشکه	-11.1378
▁استالین	-11.1378
▁تابعیت	-11.1379
▁wake	-11.1379
▁نرسید	-11.138
▁electricity	-11.138
▁sciences	-11.1381
▁restaurants	-11.1383
▁impression	-11.1385
▁پارچه	-11.1387
▁انع	-11.1387
▁sexual	-11.1388
▁بازوی	-11.1394
▁folk	-11.1395
▁refer	-11.1395
▁بیاورم	-11.1398
▁wont	-11.1403
▁brown	-11.1405
▁smiled	-11.1406
▁بیایم	-11.141
▁dim	-11.1411
▁laughing	-11.1414
▁discovered	-11.1415
▁ذهنی	-11.1416
▁راس	-11.1417
▁affected	-11.1418
▁govern	-11.1418
▁stayed	-11.1419
5	-11.1423
▁1994	-11.1423
▁پلت	-11.1439
▁شور	-11.1444
▁گرو	-11.1449
ذار	-11.145
▁gained	-11.145
▁resident	-11.145
▁tickets	-11.1452
▁نگو	-11.1454
▁راستی	-11.1456
▁مونت	-11.1456
▁proposals	-11.1458
▁یور	-11.1461
▁tone	-11.1464
ویچ	-11.1468
▁cru	-11.1474
▁crossed	-11.1475
برگ	-11.1479
▁کارشناسی	-11.148
▁ماریا	-11.1484
▁برتری	-11.1488
▁rot	-11.1489
▁آز	-11.1496
▁انداخته	-11.1503
▁اندک	-11.1509
▁باریک	-11.1519
iness	-11.1531
▁crimes	-11.1531
▁conscious	-11.1532
▁evolution	-11.1532
▁argument	-11.1534
▁explanation	-11.1534
▁intervention	-11.1534
▁license	-11.1534
▁password	-11.1534
▁valuable	-11.1534
▁تمدید	-11.1534
▁ماساچوست	-11.1534
▁مشورت	-11.1534
▁هلسینکی	-11.1534
▁دانشکده	-11.1534
▁پرچم	-11.1534
▁audit	-11.1534
▁شلوار	-11.1534
▁شکوه	-11.1534
▁wives	-11.1534
▁مارتین	-11.1534
▁بمب	-11.1534
▁quote	-11.1534
▁اردو	-11.1534
▁قاتل	-11.1534
▁بالکن	-11.1535
▁remote	-11.1535
▁پاییز	-11.1536
▁civilization	-11.1537
هواره	-11.1537
▁عادلانه	-11.1538
▁native	-11.1538
▁مایع	-11.1538
وگا	-11.1541
▁canada	-11.1543
▁maid	-11.1544
▁pace	-11.1545
▁homes	-11.1548
▁مدافعان	-11.155
▁clothing	-11.1557
▁خطرات	-11.1559
▁چاقو	-11.156
▁doesnt	-11.1561
▁warning	-11.1564
▁borders	-11.1567
▁اندام	-11.1569
▁bolsheviks	-11.1573
ening	-11.1574
▁گذاشتند	-11.1574
شناس	-11.1575
▁comrades	-11.1578
▁fu	-11.158
▁قربانیان	-11.1582
▁adults	-11.1586
▁layer	-11.1593
▁لرز	-11.1594
stone	-11.1603
▁بتوانی	-11.1603
▁colleague	-11.1609
▁princes	-11.1613
▁متفاوتی	-11.1614
▁cow	-11.1617
▁دادستان	-11.1617
▁آمریکای	-11.1626
▁capitalist	-11.1643
▁tables	-11.1646
▁dealing	-11.1647
▁بیند	-11.1652
▁عاشقان	-11.1655
▁کیت	-11.1655
اخت	-11.1658
▁صمیم	-11.1668
قت	-11.1675
▁decline	-11.1682
▁شجاع	-11.1686
▁sq	-11.1687
▁detect	-11.169
▁caucasus	-11.1692
▁dervish	-11.1692
▁helsinki	-11.1692
▁jordan	-11.1692
▁ordinary	-11.1692
▁policies	-11.1692
▁proletarian	-11.1692
▁اپوزیسیون	-11.1692
▁بازنشستگ	-11.1692
▁خستگی	-11.1692
▁درآورد	-11.1692
▁دفاتر	-11.1692
▁مصیبت	-11.1692
▁ریاض	-11.1692
▁تنوع	-11.1692
▁fault	-11.1692
▁آسانسور	-11.1692
▁narrow	-11.1692
▁daniel	-11.1692
▁مریلند	-11.1692
▁football	-11.1693
▁ظهور	-11.1693
▁micro	-11.1693
▁مقصد	-11.1693
▁robert	-11.1693
▁نوزاد	-11.1693
▁copper	-11.1693
▁maryland	-11.1693
▁تولیدکنندگان	-11.1693
▁تاکسی	-11.1693
▁interaction	-11.1693
▁assessment	-11.1694
▁bomb	-11.1694
▁میگم	-11.1694
▁کالج	-11.1695
▁کیم	-11.1695
▁luke	-11.1696
▁difficulties	-11.1696
▁awake	-11.1697
▁ندهید	-11.1697
▁vast	-11.1698
▁described	-11.1703
▁گیاهان	-11.1705
ناس	-11.1705
▁تف	-11.1706
▁corresponding	-11.1707
▁obviously	-11.1708
▁updated	-11.1709
▁رادیو	-11.171
▁وحشتناکی	-11.1717
▁reviews	-11.1717
▁significantly	-11.1724
▁armor	-11.1729
▁hanging	-11.1733
duct	-11.1734
▁sul	-11.1735
▁um	-11.1736
▁رویا	-11.1737
▁آمدید	-11.1741
▁برادرش	-11.1743
▁آیین	-11.1743
▁شوهرش	-11.1749
▁رئیسش	-11.1753
▁گفتار	-11.1755
▁پیک	-11.1758
▁گیرید	-11.1761
▁poly	-11.1762
▁فلسطین	-11.1763
azar	-11.1763
▁improved	-11.1765
▁burned	-11.1768
▁proposal	-11.177
▁resource	-11.177
▁rolling	-11.1771
▁شگفتی	-11.1772
▁trained	-11.1773
▁protected	-11.1782
▁israeli	-11.1783
▁circles	-11.1783
▁گذاشتم	-11.1789
▁suffer	-11.1797
لیف	-11.1797
gat	-11.18
▁گله	-11.1802
▁pours	-11.1806
صه	-11.1812
▁districts	-11.1814
lk	-11.1817
▁شعب	-11.1825
▁صو	-11.1826
▁رویم	-11.1826
▁چرخه	-11.1832
▁addressed	-11.1837
itu	-11.1838
▁پسری	-11.1839
▁نشین	-11.1841
ency	-11.1843
▁پات	-11.1847
تعلق	-11.1847
▁میاد	-11.1848
▁اختلاف	-11.1849
▁بنشین	-11.1849
▁drunk	-11.1851
▁بنویس	-11.1853
▁carriage	-11.1854
▁digital	-11.1854
▁embrace	-11.1854
▁experiment	-11.1854
▁invitation	-11.1854
▁multitude	-11.1854
▁rough	-11.1854
▁supervisor	-11.1854
▁volunteer	-11.1854
▁اتباع	-11.1854
▁انفجار	-11.1854
▁تروتسکی	-11.1854
▁مجتمع	-11.1854
▁bottle	-11.1854
▁distinguish	-11.1854
▁virtual	-11.1854
▁لبنان	-11.1854
▁بیگانه	-11.1854
▁سوسیالیسم	-11.1854
▁akmol	-11.1854
▁kyrgyzstan	-11.1854
▁rising	-11.1854
▁shopping	-11.1854
▁کافه	-11.1855
▁مذبح	-11.1855
▁turnover	-11.1855
▁consistent	-11.1855
▁passage	-11.1858
▁دیوید	-11.1858
oli	-11.186
▁prevention	-11.186
▁شهریور	-11.186
pec	-11.1861
▁مارکس	-11.1862
▁دوستانش	-11.1863
▁socialism	-11.1863
لن	-11.1865
▁angeles	-11.1866
▁guaranteed	-11.187
اجد	-11.187
▁روستاها	-11.1872
▁rare	-11.1872
▁taxes	-11.1874
وال	-11.1878
▁plate	-11.1878
دال	-11.188
▁successfully	-11.1882
rid	-11.1882
▁گردد	-11.1883
▁worthy	-11.1883
▁previously	-11.1887
وین	-11.1895
▁شکار	-11.1899
▁sooner	-11.19
▁lest	-11.1902
▁رنگی	-11.1904
▁ستم	-11.1906
▁perfectly	-11.1907
▁آرزوهای	-11.191
▁قدیم	-11.1927
roll	-11.1929
وزه	-11.1932
proved	-11.1933
▁instrument	-11.1934
▁creature	-11.1934
▁بردند	-11.1934
▁personally	-11.1935
▁دستمزد	-11.1936
▁mur	-11.1941
▁درونی	-11.1947
▁سارا	-11.1951
pped	-11.1951
▁دلم	-11.1954
▁gro	-11.1959
▁استرس	-11.196
▁ورون	-11.1961
▁commissions	-11.1963
درج	-11.1963
▁آرو	-11.1963
▁ششم	-11.1964
▁شیک	-11.1965
ada	-11.197
rod	-11.1986
▁نواز	-11.1993
▁organize	-11.1994
▁shops	-11.1995
▁reign	-11.1997
پول	-11.2
▁بابل	-11.2003
▁investigat	-11.2003
▁seconds	-11.2011
▁ویدئو	-11.2017
▁examination	-11.2017
▁greece	-11.2017
▁harmony	-11.2017
▁holocaust	-11.2017
▁kyzylorda	-11.2017
▁peacekeep	-11.2017
▁possibilities	-11.2017
▁precious	-11.2017
▁struck	-11.2017
▁trotsky	-11.2017
▁ارتدکس	-11.2017
▁تزئین	-11.2017
▁تصفیه	-11.2017
▁تعالی	-11.2017
▁شیاطین	-11.2017
▁مجسمه	-11.2017
▁مقصر	-11.2017
▁منتخب	-11.2017
▁ناشناخته	-11.2017
▁هولوکاست	-11.2017
▁پانزده	-11.2017
▁hurry	-11.2017
▁alarm	-11.2018
▁ropes	-11.2018
▁مزیت	-11.2018
▁flag	-11.2018
▁birthday	-11.2018
▁studio	-11.2018
▁compliance	-11.2018
▁priorities	-11.2018
▁bold	-11.2018
▁گلوله	-11.2018
▁volta	-11.2019
▁southern	-11.2019
▁پکن	-11.202
▁adoption	-11.202
▁تحولات	-11.202
▁شهرها	-11.2021
▁marx	-11.2021
▁لرد	-11.2021
▁اندیش	-11.2021
▁bow	-11.2022
▁بتوانند	-11.2022
▁آرمان	-11.2022
▁euros	-11.2022
all	-11.2023
▁بمانم	-11.2027
▁settled	-11.2028
cel	-11.2033
▁آزادانه	-11.2035
▁installed	-11.2037
▁کلبه	-11.2038
▁لیوان	-11.2045
▁cro	-11.2046
▁پرتو	-11.2047
▁نرفت	-11.205
▁offices	-11.205
▁انتظارات	-11.2056
بون	-11.2059
▁hundreds	-11.2069
▁happens	-11.2069
hor	-11.2071
▁بوش	-11.2075
▁attraction	-11.2076
▁boots	-11.2077
▁مهربانی	-11.2079
▁وری	-11.2079
▁marked	-11.2083
ew	-11.2086
▁امپراتور	-11.209
▁martin	-11.2094
▁closely	-11.2096
▁drinking	-11.2097
▁bn	-11.21
▁kit	-11.2102
▁pig	-11.2104
▁کرم	-11.2105
▁اسکا	-11.2108
▁listened	-11.2109
▁wage	-11.2112
▁seats	-11.2115
شویی	-11.2116
▁muslims	-11.2116
▁nutrients	-11.2116
▁bond	-11.2119
▁cleaning	-11.212
قام	-11.2133
▁prepar	-11.2137
▁governmental	-11.2144
▁بپوش	-11.2147
▁نازی	-11.2154
▁recommend	-11.2156
▁دستاورد	-11.2159
▁aunt	-11.2159
▁aug	-11.2161
▁هنرمند	-11.2164
▁گوسفند	-11.2165
▁ivan	-11.2167
▁char	-11.2168
▁smooth	-11.2171
▁کش	-11.2171
▁تکی	-11.2171
▁شکستن	-11.2172
▁translate	-11.2173
▁chose	-11.2178
▁پناه	-11.2183
▁نقد	-11.2183
▁chicago	-11.2184
▁colonel	-11.2184
▁crazy	-11.2184
▁everywhere	-11.2184
▁industries	-11.2184
▁kentucky	-11.2184
▁magazine	-11.2184
▁novgorod	-11.2184
▁scarce	-11.2184
▁technological	-11.2184
▁wilderness	-11.2184
▁اعتصاب	-11.2184
▁حفاری	-11.2184
▁شیکاگو	-11.2184
▁فرشتگان	-11.2184
▁horror	-11.2184
▁حسادت	-11.2184
▁زحمات	-11.2184
▁شوالیه	-11.2184
▁sorrow	-11.2184
▁tags	-11.2184
▁سرهنگ	-11.2184
▁کنتاکی	-11.2184
▁فنجان	-11.2184
▁lists	-11.2184
▁inheritance	-11.2185
▁مسخره	-11.2185
▁primar	-11.2185
▁babylon	-11.2185
▁radical	-11.2185
▁مریض	-11.2185
▁wanna	-11.2185
▁درویش	-11.2185
▁منشور	-11.2185
▁continuous	-11.2185
▁opposite	-11.2185
▁motor	-11.2186
▁وجوه	-11.2186
▁گربه	-11.2186
▁خنک	-11.2186
▁مقالات	-11.2186
▁سوئیت	-11.2187
▁پرندگان	-11.2188
▁پخت	-11.2188
▁hunger	-11.2189
▁plen	-11.2191
▁convinced	-11.2192
▁decid	-11.2193
▁اسیر	-11.2194
▁decreased	-11.2194
▁mental	-11.2194
▁witnesses	-11.2196
▁gifts	-11.2197
▁nurse	-11.2201
بول	-11.2204
▁عجیبی	-11.2207
▁extended	-11.2209
▁male	-11.2209
▁مشکلاتی	-11.2215
▁اندازد	-11.2215
ino	-11.2216
▁اینترنتی	-11.2219
win	-11.222
▁پور	-11.2224
▁تار	-11.2228
▁jun	-11.2228
▁وقتش	-11.2232
اکو	-11.2233
▁commandments	-11.2236
▁غریبه	-11.2237
▁cycle	-11.2251
▁وکار	-11.2252
▁practices	-11.2255
▁machines	-11.2256
▁بدبخت	-11.2259
▁اخلاق	-11.2259
try	-11.2262
▁ec	-11.2262
hes	-11.2265
▁رویای	-11.227
راک	-11.2273
▁jul	-11.2274
▁ابد	-11.2275
▁entering	-11.2281
▁testing	-11.2286
پاشی	-11.2289
▁arts	-11.2292
▁آف	-11.2293
rop	-11.2296
جن	-11.2297
▁آری	-11.2305
▁plane	-11.2305
▁reader	-11.2305
▁کادر	-11.2314
شوت	-11.2318
town	-11.232
▁adopt	-11.2324
رام	-11.2329
▁falling	-11.2334
▁350	-11.2335
▁اخ	-11.2337
▁absolute	-11.234
▁شورا	-11.2341
▁محافظ	-11.2342
▁pursue	-11.2343
▁describe	-11.2343
▁215	-11.2343
▁فرق	-11.2344
▁breaking	-11.2345
ail	-11.2351
▁punish	-11.2352
▁beijing	-11.2354
▁contemporar	-11.2354
▁empire	-11.2354
▁exciting	-11.2354
▁nervous	-11.2354
▁المنافع	-11.2354
▁انحراف	-11.2354
▁بلندمدت	-11.2354
▁فشرده	-11.2354
▁قاچاق	-11.2354
▁ناخوشایند	-11.2354
▁نظرسنجی	-11.2354
▁هیوستون	-11.2354
▁eager	-11.2354
▁smiling	-11.2354
▁نگذار	-11.2354
▁تحمیل	-11.2354
▁slogan	-11.2354
▁torture	-11.2354
▁تربیت	-11.2354
▁insult	-11.2354
▁finnish	-11.2354
▁automatically	-11.2354
▁burden	-11.2354
▁بیایند	-11.2354
▁ابعاد	-11.2354
▁strip	-11.2355
▁bend	-11.2355
▁bonus	-11.2356
▁punches	-11.2356
▁الاج	-11.2356
▁execution	-11.2356
▁silk	-11.2356
▁ross	-11.2357
▁consultation	-11.2358
▁ولتر	-11.2358
▁مرور	-11.2358
▁اتهامات	-11.2358
▁definitely	-11.2359
▁corporation	-11.2359
▁aside	-11.2362
▁bala	-11.2363
▁seventh	-11.2363
▁bas	-11.2364
▁formal	-11.2365
▁theory	-11.2366
▁authorized	-11.2367
▁defined	-11.2369
▁امتیازات	-11.2369
▁پرید	-11.2371
▁cm	-11.2371
▁سونا	-11.2377
▁آشپزی	-11.2377
▁پیوستن	-11.2378
▁1991	-11.2381
▁شنیدند	-11.2386
▁بخر	-11.2389
▁جوش	-11.2389
▁1998	-11.239
▁moments	-11.2392
▁sack	-11.2394
head	-11.2394
▁تیز	-11.2396
ware	-11.24
ایت	-11.24
▁بریده	-11.24
▁jumping	-11.2409
▁hosts	-11.2413
▁ships	-11.2414
▁نمایه	-11.2418
500	-11.2418
▁colors	-11.2418
وج	-11.2421
tric	-11.2425
▁دون	-11.2426
▁مرزی	-11.2426
▁زنا	-11.2437
▁artists	-11.2437
▁نامزدهای	-11.244
▁رب	-11.2441
▁الگوی	-11.2441
▁سوزاند	-11.2442
ابت	-11.2442
▁saving	-11.2442
▁lawyer	-11.2442
▁ticket	-11.2442
حال	-11.2443
جان	-11.2444
▁ژو	-11.2454
park	-11.2459
▁organisations	-11.246
▁بودید	-11.246
▁rob	-11.2461
▁تلویزیونی	-11.2466
کودک	-11.2473
▁core	-11.2475
▁bon	-11.2475
▁objectives	-11.2483
▁راهنما	-11.2489
مشق	-11.249
▁causes	-11.2495
▁سریعتر	-11.2504
gram	-11.2507
▁دلش	-11.2514
▁eli	-11.2515
▁invent	-11.2515
▁بازگرد	-11.2519
▁بپیوند	-11.2519
▁بمیر	-11.2523
▁relationships	-11.2524
▁coordinat	-11.2524
▁assess	-11.2525
▁معلول	-11.2525
▁george	-11.2526
▁mexico	-11.2526
▁plastic	-11.2526
▁privilege	-11.2526
▁rejoice	-11.2526
▁satisfied	-11.2526
▁somewhere	-11.2526
▁survey	-11.2526
▁uniform	-11.2526
▁تجمع	-11.2526
▁جماعت	-11.2526
▁دیکتاتور	-11.2526
▁معاصر	-11.2526
▁کمربند	-11.2526
▁accompani	-11.2526
▁rachel	-11.2526
▁تاکنون	-11.2526
▁blank	-11.2526
▁میخوام	-11.2526
▁نشنید	-11.2526
▁split	-11.2526
▁یخچال	-11.2526
▁properties	-11.2526
▁نیازمند	-11.2527
▁proceedings	-11.2527
▁عبدال	-11.2527
▁hatred	-11.2527
▁gentleman	-11.2527
▁برگرداند	-11.2527
▁ممنوعیت	-11.2529
▁huh	-11.253
طاف	-11.2531
▁audio	-11.2531
▁compli	-11.2531
▁guilty	-11.2532
▁بزرگسالان	-11.2534
▁manual	-11.2535
▁بندگان	-11.2537
▁combined	-11.2539
▁emphasized	-11.2539
▁بمون	-11.2542
uck	-11.2546
▁noticed	-11.255
پرس	-11.255
▁450	-11.256
▁pity	-11.2561
▁اختصاصی	-11.2564
▁churches	-11.2565
▁collected	-11.2565
▁notes	-11.2566
▁mart	-11.2567
پار	-11.257
▁transactions	-11.2572
▁قراردادهای	-11.2575
▁کاربری	-11.258
▁رساندن	-11.2581
پس	-11.2582
▁az	-11.2584
▁opera	-11.2585
▁appears	-11.259
▁expenses	-11.2593
▁loans	-11.2593
▁keeps	-11.2597
▁lean	-11.2605
▁نظریه	-11.2605
▁شوراها	-11.2609
▁mining	-11.2612
▁قطره	-11.2615
▁camel	-11.2619
▁electro	-11.2622
▁lit	-11.2622
▁گند	-11.2628
▁lesson	-11.2629
▁مینی	-11.263
▁گرین	-11.2631
▁کلیساها	-11.2637
▁مدار	-11.2639
▁بافت	-11.2639
▁کارگاه	-11.2639
▁نای	-11.2641
▁وفاداری	-11.265
flow	-11.2651
▁یادم	-11.2653
▁دینی	-11.2656
▁gul	-11.2658
▁mac	-11.2663
▁الکسی	-11.2664
▁historic	-11.2677
▁represents	-11.2678
▁shout	-11.2678
▁competitions	-11.2678
▁liked	-11.2681
▁سپاسگزار	-11.2683
▁exists	-11.2686
▁audience	-11.2701
▁bulgaria	-11.2701
▁constitute	-11.2701
▁luxury	-11.2701
▁navigat	-11.2701
▁ossetia	-11.2701
▁wrath	-11.2701
▁انباشت	-11.2701
▁تخریب	-11.2701
▁خجالت	-11.2701
▁شایستگی	-11.2701
▁مادربزرگ	-11.2701
▁نووگورود	-11.2701
▁واگذار	-11.2701
▁وقوع	-11.2701
▁fifteen	-11.2701
▁harvest	-11.2701
▁solemn	-11.2701
▁استودیو	-11.2701
▁pretend	-11.2702
▁retail	-11.2702
▁serbia	-11.2702
▁mystery	-11.2702
▁ireland	-11.2702
▁روزمره	-11.2702
▁solar	-11.2702
▁bought	-11.2702
اطه	-11.2702
▁plenty	-11.2702
▁abide	-11.2703
▁arrangement	-11.2703
▁oliver	-11.2704
▁temporary	-11.2704
▁transformation	-11.2704
▁machinery	-11.2704
▁حوله	-11.2705
▁arkan	-11.2705
▁pale	-11.2705
▁exam	-11.2705
▁boil	-11.2708
▁cher	-11.2708
ught	-11.2708
▁oct	-11.2709
▁یونی	-11.271
▁oak	-11.271
▁عسل	-11.2711
▁بگذاریم	-11.2713
▁دزد	-11.2714
▁لیتر	-11.2715
ارو	-11.2715
▁کهنه	-11.2721
▁راستش	-11.2726
▁regarded	-11.2729
shev	-11.2729
▁هلند	-11.273
▁crack	-11.2733
▁ببرم	-11.2734
▁tradition	-11.2735
▁por	-11.2742
▁1993	-11.2744
sas	-11.2767
▁نداشتند	-11.277
▁spending	-11.2772
▁افزوده	-11.2773
▁trends	-11.2778
ایوت	-11.2792
▁jew	-11.2799
▁artist	-11.28
▁doctors	-11.2801
▁agent	-11.2802
▁لیک	-11.2807
▁conflicts	-11.2815
▁settings	-11.2832
واره	-11.2833
▁killing	-11.2833
لوس	-11.2836
pha	-11.2836
▁sectors	-11.2842
▁flower	-11.2842
▁mostly	-11.2842
▁eating	-11.2846
▁era	-11.2853
▁kazakhstani	-11.2853
▁نگر	-11.2858
▁کنش	-11.286
▁millions	-11.2864
▁joe	-11.2867
▁settle	-11.2872
▁qua	-11.2872
▁restore	-11.2872
▁اتهام	-11.2875
▁داوطلب	-11.2877
▁admit	-11.2879
▁accurate	-11.288
▁proclaim	-11.288
▁restoration	-11.288
▁satellite	-11.288
▁sleeve	-11.288
▁television	-11.288
▁ائتلاف	-11.288
▁اسرار	-11.288
▁بطری	-11.288
▁تضعیف	-11.288
▁تهاجم	-11.288
▁سورپرایز	-11.288
▁مخلوط	-11.288
▁چارلز	-11.288
▁asleep	-11.288
▁مجاور	-11.288
▁stories	-11.288
▁worst	-11.288
▁ضمن	-11.288
▁ذات	-11.288
▁نیامد	-11.288
▁composition	-11.288
▁typical	-11.288
▁index	-11.288
▁قاره	-11.288
▁barrier	-11.288
▁cafe	-11.288
▁communities	-11.288
▁راننده	-11.288
▁fought	-11.288
▁خشمگین	-11.288
▁گواهینامه	-11.2881
▁quran	-11.2882
▁hopes	-11.2882
▁hook	-11.2882
▁کیهان	-11.2882
▁تظاهرات	-11.2883
▁عطا	-11.2884
▁سکه	-11.2884
▁تابع	-11.2884
▁زین	-11.2884
▁هفتاد	-11.2885
▁pants	-11.2885
fu	-11.2886
▁precisely	-11.2888
ography	-11.2889
▁هاستل	-11.2891
▁آرایش	-11.2891
▁cancel	-11.2893
▁pra	-11.2893
▁بدانند	-11.2894
▁غار	-11.2896
▁نوک	-11.2897
▁rental	-11.2898
▁کلا	-11.2898
▁هنرمندان	-11.2902
▁لینک	-11.2902
▁میلاد	-11.2903
▁faster	-11.2907
▁شناسم	-11.2908
cher	-11.2909
del	-11.2912
▁اتفاقات	-11.2914
▁thine	-11.2914
▁contained	-11.2917
▁مشخصات	-11.2923
▁یاران	-11.2923
▁producers	-11.2924
▁obtained	-11.2924
▁باهاش	-11.2928
▁sms	-11.2928
▁commander	-11.2934
▁rid	-11.2937
▁فیل	-11.2949
▁contacts	-11.2958
▁sole	-11.2963
▁hence	-11.2963
راس	-11.2965
▁bore	-11.2968
▁سوزان	-11.2968
▁برات	-11.2971
▁کود	-11.2973
ark	-11.2975
▁mechanism	-11.2978
▁remaining	-11.2979
▁corn	-11.2981
▁نبوده	-11.2982
▁تلاشم	-11.2983
▁subjects	-11.2984
iff	-11.2992
▁پاهایش	-11.2994
▁ولت	-11.2998
▁networks	-11.3
▁سامان	-11.3001
▁خدایا	-11.3003
▁ملیت	-11.3007
گین	-11.3019
▁خلاص	-11.3024
▁900	-11.3025
▁اعطای	-11.3026
▁bonds	-11.3028
میر	-11.3032
▁آزمایشی	-11.3035
▁fra	-11.3039
▁owners	-11.3045
rog	-11.3046
بید	-11.3046
▁فقر	-11.3046
▁فای	-11.3047
▁urge	-11.3048
▁involve	-11.3049
▁invite	-11.3052
▁عمو	-11.3054
▁romania	-11.3054
▁الزام	-11.3057
125	-11.3057
▁بورژوا	-11.3061
▁تعوی	-11.3061
▁chisinau	-11.3062
▁healthcare	-11.3062
▁lebanon	-11.3062
▁multiple	-11.3062
▁paragraph	-11.3062
▁principal	-11.3062
▁quantity	-11.3062
▁senior	-11.3062
▁testimony	-11.3062
▁اجزا	-11.3062
▁بلژیک	-11.3062
▁تبعیض	-11.3062
▁زغال	-11.3062
▁reliable	-11.3062
▁جرایم	-11.3062
▁معلوم	-11.3062
▁نوادا	-11.3062
▁generate	-11.3062
▁دفن	-11.3062
▁ابریشم	-11.3062
▁بکنم	-11.3062
▁جسد	-11.3062
▁ducks	-11.3062
▁سکونت	-11.3062
▁جعل	-11.3062
▁نارنج	-11.3062
▁کاسه	-11.3062
▁switch	-11.3062
▁جابجایی	-11.3062
▁occurred	-11.3062
▁offend	-11.3063
▁تابوت	-11.3063
▁نترس	-11.3063
▁دلپذیر	-11.3064
▁crimea	-11.3064
▁خوری	-11.3065
kar	-11.3066
▁iranian	-11.3067
▁parade	-11.3067
▁تیره	-11.3069
▁assured	-11.3071
▁ندهد	-11.3073
▁آبجو	-11.3074
▁کتب	-11.3077
▁خواننده	-11.3085
nik	-11.3088
▁مسافران	-11.3089
▁crush	-11.3091
وآ	-11.3091
▁کمر	-11.3095
▁آورم	-11.3096
▁springs	-11.3101
▁coin	-11.3101
▁مشت	-11.3106
▁رویایی	-11.3107
▁larger	-11.3107
▁max	-11.3109
▁granted	-11.311
▁sow	-11.3115
▁engineer	-11.3117
▁wire	-11.312
▁staying	-11.3122
▁رابرت	-11.3128
▁سرو	-11.3128
▁younger	-11.3134
▁holds	-11.3136
▁linen	-11.314
▁opinions	-11.3153
wo	-11.3162
▁judges	-11.3173
pol	-11.3173
▁bal	-11.3178
▁runs	-11.3183
▁بازگرداندن	-11.3184
▁جدیدش	-11.3189
off	-11.3192
▁سازه	-11.3193
▁feb	-11.3194
▁satan	-11.3195
▁مطمئنم	-11.3195
لاس	-11.3196
▁آقایان	-11.3196
▁creates	-11.3199
▁kal	-11.3208
▁پورت	-11.3208
▁بروی	-11.321
وئل	-11.321
▁extend	-11.3219
▁rum	-11.322
gie	-11.3221
▁encourage	-11.3234
▁کیلومتری	-11.3235
▁decrease	-11.3236
mont	-11.3237
▁villages	-11.3243
▁متقاضی	-11.3247
▁approval	-11.3247
▁detention	-11.3247
▁discipline	-11.3247
▁essence	-11.3247
▁headquarters	-11.3247
▁merchant	-11.3247
▁nevada	-11.3247
▁premises	-11.3247
▁underground	-11.3247
▁unturned	-11.3247
▁اکتشاف	-11.3247
▁لحظات	-11.3247
▁مضطرب	-11.3247
▁نیژنی	-11.3247
▁پرتغال	-11.3247
▁encounter	-11.3247
▁workshop	-11.3247
▁سرنگون	-11.3247
▁مجله	-11.3247
▁لغز	-11.3247
▁nizhn	-11.3247
▁تحسین	-11.3247
▁فراخواند	-11.3247
▁betray	-11.3247
▁resurrection	-11.3247
حریم	-11.3248
▁fer	-11.3248
▁اردن	-11.3249
▁مبتلا	-11.325
▁slip	-11.325
▁emma	-11.3252
▁خوک	-11.3252
▁string	-11.3253
▁الم	-11.3253
▁ببریم	-11.3253
▁بمیرد	-11.3254
▁respective	-11.3254
▁goose	-11.3255
▁ناله	-11.3255
▁1945	-11.3257
▁formula	-11.3258
▁تراش	-11.326
▁frightened	-11.3262
▁rapidly	-11.3263
▁تحصیلی	-11.3264
▁مومن	-11.3268
▁منع	-11.3269
▁voices	-11.3269
▁کاپ	-11.3272
▁بردارید	-11.3276
▁referr	-11.3281
▁مبادل	-11.3281
▁نبودم	-11.3285
▁1941	-11.3288
▁بینیم	-11.329
▁قوا	-11.3291
▁فرمت	-11.3291
▁feels	-11.3292
▁cooking	-11.3295
▁increases	-11.3295
pu	-11.3297
▁صادرکنند	-11.3297
▁represented	-11.3301
▁وزیران	-11.3302
▁suggested	-11.3304
وفسکی	-11.3305
اران	-11.3309
▁smaller	-11.3313
▁سوسیالیستی	-11.3317
دهای	-11.3319
▁visits	-11.332
▁violations	-11.3327
▁برخیز	-11.3327
▁انگلیس	-11.3342
▁کنسول	-11.3342
▁شناختی	-11.3347
▁بدبختی	-11.3351
▁conditioning	-11.3355
▁kim	-11.3357
▁پرستار	-11.3357
hal	-11.3358
tia	-11.336
168	-11.336
▁experiences	-11.3362
▁ماندن	-11.3363
یغ	-11.3366
▁کوس	-11.337
اتور	-11.3375
▁برح	-11.3377
right	-11.3387
▁dur	-11.3388
▁dam	-11.3388
▁promot	-11.3389
▁صب	-11.3394
▁mol	-11.3395
iy	-11.3398
▁sending	-11.3401
ریت	-11.3403
▁farms	-11.3404
▁brow	-11.3405
▁چو	-11.3406
▁founder	-11.3408
▁reject	-11.3408
ograph	-11.3414
▁گلف	-11.3417
▁profession	-11.342
▁تسلی	-11.342
▁terror	-11.3422
▁شیرینی	-11.3427
▁دال	-11.3429
top	-11.3429
▁generations	-11.343
▁wicked	-11.3434
▁اپرا	-11.3436
▁accumulat	-11.3436
▁behavior	-11.3436
▁beneficial	-11.3436
▁landscape	-11.3436
▁meanwhile	-11.3436
▁natasha	-11.3436
▁oregon	-11.3436
▁submission	-11.3436
▁truck	-11.3436
▁widow	-11.3436
▁بلغارستان	-11.3436
▁بپردازد	-11.3436
▁تجسم	-11.3436
▁ثالث	-11.3436
▁ضعف	-11.3436
▁موظف	-11.3436
▁companion	-11.3436
▁saudi	-11.3436
▁swear	-11.3436
▁محترم	-11.3436
▁await	-11.3436
▁دانمارک	-11.3436
▁محوطه	-11.3436
▁مبهم	-11.3436
▁اورگان	-11.3436
▁ناتاش	-11.3436
▁citizenship	-11.3436
▁میدونم	-11.3436
▁اوستیای	-11.3436
▁entertainment	-11.3436
▁تفکر	-11.3436
▁پیامدهای	-11.3437
▁ladies	-11.3437
▁utah	-11.3437
▁ruling	-11.3437
▁لیبرال	-11.3438
▁gradually	-11.3438
▁صدمه	-11.3439
▁serzh	-11.3439
▁یوتا	-11.3439
▁کوبید	-11.3442
▁cargo	-11.3443
▁photography	-11.3443
▁الیور	-11.3444
▁بکند	-11.3447
▁ignore	-11.3448
▁slightly	-11.3449
▁نمیتونم	-11.3449
▁declined	-11.345
▁امیدواریم	-11.3452
ایگور	-11.3452
▁desk	-11.3458
▁دوستانم	-11.3458
▁بپرسم	-11.3462
▁tender	-11.3471
▁برنج	-11.3471
▁برآورد	-11.3475
▁arrested	-11.3475
▁brings	-11.3477
▁راهرو	-11.3483
thy	-11.3485
▁vessels	-11.3486
▁سفت	-11.3488
▁کنجکاوی	-11.3488
▁سرژ	-11.3492
▁فلزی	-11.3497
▁pri	-11.3499
▁گرایان	-11.3504
▁recorded	-11.3513
▁demons	-11.3517
ima	-11.3519
▁ساختمانی	-11.3526
▁ویزای	-11.3526
▁sew	-11.3533
▁trend	-11.3544
▁parent	-11.3546
▁hid	-11.3549
well	-11.3552
▁ascend	-11.3555
704	-11.3556
حرف	-11.3569
bus	-11.3572
▁predict	-11.3574
fore	-11.3581
▁guarantees	-11.3585
▁101	-11.3593
▁گرفتار	-11.3601
miss	-11.3602
▁bowl	-11.3606
▁mix	-11.3607
▁stages	-11.3614
▁sudden	-11.3615
▁رگ	-11.3618
▁نیستیم	-11.362
▁manifest	-11.3622
▁کارمند	-11.3623
▁dia	-11.3627
▁restrict	-11.3628
▁anybody	-11.3628
▁applicant	-11.3628
▁balcony	-11.3628
▁bandwagon	-11.3628
▁curtain	-11.3628
▁elegant	-11.3628
▁بازاریابی	-11.3628
▁بازپرداخت	-11.3628
▁دخالت	-11.3628
▁شانگهای	-11.3628
▁فرعون	-11.3628
▁قائل	-11.3628
▁محروم	-11.3628
▁مواظب	-11.3628
▁female	-11.3628
▁legend	-11.3628
▁pharaoh	-11.3628
▁مشروط	-11.3628
▁نامناسب	-11.3628
▁پمپ	-11.3628
▁آرشیو	-11.3628
▁berlin	-11.3628
▁smith	-11.3628
▁توالت	-11.3628
▁shirt	-11.3629
▁عصا	-11.3629
▁admitted	-11.3629
▁مخدر	-11.3629
▁اقت	-11.3629
▁ویکتوریا	-11.3629
▁thunder	-11.3629
▁نویسندگان	-11.3629
▁announcement	-11.3629
▁غبار	-11.3629
▁شرمنده	-11.3629
▁بمانید	-11.363
rian	-11.3631
▁تعلیق	-11.3631
▁shore	-11.3631
▁زوج	-11.3634
▁clam	-11.3634
▁کشتن	-11.3634
▁papers	-11.3635
▁anymore	-11.3636
▁withdrawal	-11.3637
▁considerable	-11.3638
▁بخورد	-11.3638
▁compromise	-11.3639
▁بارسلونا	-11.3639
▁kindness	-11.3642
▁reap	-11.3644
زاد	-11.3647
▁ترانس	-11.365
▁theater	-11.3651
والی	-11.3652
▁جانور	-11.3652
▁sofa	-11.3656
▁پیروان	-11.366
▁ماهر	-11.3662
▁برلین	-11.3662
▁desired	-11.3662
▁turns	-11.3663
char	-11.3673
bad	-11.3679
سخ	-11.3683
مال	-11.3696
▁payments	-11.3697
▁باستان	-11.37
▁marketing	-11.3701
pit	-11.3704
▁عینی	-11.3709
▁نفتی	-11.3713
▁lip	-11.3714
▁coal	-11.372
▁lion	-11.3721
▁division	-11.374
▁لاین	-11.374
▁victim	-11.3741
▁violation	-11.3743
▁نزدیکتر	-11.3744
▁باردار	-11.3744
ماه	-11.3771
atory	-11.3776
▁kara	-11.3781
▁luc	-11.3787
▁belongs	-11.3794
ode	-11.3811
▁شاگرد	-11.3812
▁stands	-11.3813
حت	-11.3818
sburg	-11.3819
nova	-11.382
▁transit	-11.3821
▁oppress	-11.3822
▁مسلمان	-11.3824
script	-11.3824
▁anywhere	-11.3824
▁continent	-11.3824
▁dictatorship	-11.3824
▁elephant	-11.3824
▁extensive	-11.3824
▁flood	-11.3824
▁joshua	-11.3824
▁michael	-11.3824
▁napoleon	-11.3824
▁regret	-11.3824
▁spacious	-11.3824
▁استقرار	-11.3824
▁برانگیز	-11.3824
▁رستاخیز	-11.3824
▁سعودی	-11.3824
▁عذر	-11.3824
▁علائم	-11.3824
▁مجروح	-11.3824
▁مواقع	-11.3824
▁ناپلئون	-11.3824
▁ویندوز	-11.3824
▁disabled	-11.3824
▁visual	-11.3824
▁ترفیع	-11.3824
▁ساعات	-11.3824
▁entity	-11.3824
qualified	-11.3824
▁plug	-11.3824
▁یابند	-11.3824
▁پناهندگان	-11.3824
▁igor	-11.3825
▁شمرد	-11.3825
▁appointment	-11.3825
▁استخراج	-11.3825
▁urgent	-11.3825
▁rescue	-11.3825
▁dying	-11.3825
▁funny	-11.3826
▁ارتقائ	-11.3826
▁cloth	-11.3827
▁lots	-11.3827
▁چمن	-11.3827
rak	-11.3827
▁خلاقیت	-11.3827
▁ژنو	-11.3827
▁شات	-11.3828
▁ارث	-11.3828
▁flies	-11.3828
▁acquainted	-11.3829
▁favorite	-11.3829
▁اختلافات	-11.383
▁branches	-11.3832
▁golf	-11.3832
نجس	-11.3833
hitting	-11.3834
hur	-11.3839
▁sentenced	-11.384
▁گیریم	-11.3841
▁resolved	-11.3842
بخشی	-11.3845
▁ورزشکاران	-11.3847
▁partial	-11.3847
▁abuse	-11.3852
▁continuing	-11.3852
▁داشتنی	-11.3854
▁نکنند	-11.3856
▁آوی	-11.3857
▁نویسد	-11.3858
▁هوش	-11.386
▁slight	-11.3861
▁dare	-11.3864
▁ماهیگیری	-11.3864
▁حرارتی	-11.3865
▁elders	-11.3868
▁maria	-11.3876
▁دلت	-11.3876
▁obligations	-11.3882
▁treated	-11.3882
▁نوشیدن	-11.3886
▁semi	-11.3886
ania	-11.389
▁tam	-11.3892
کاس	-11.3892
▁dressed	-11.3893
▁نیش	-11.3894
▁winners	-11.3899
▁discussing	-11.3901
▁mus	-11.3918
oid	-11.3921
▁میتونم	-11.3925
▁تاپ	-11.3934
▁یافتند	-11.3936
vert	-11.3936
▁funding	-11.3937
▁perspective	-11.394
▁vehicle	-11.3941
▁aspect	-11.3941
▁soldier	-11.3942
▁signing	-11.3942
▁achievement	-11.3945
▁فرانت	-11.3952
▁843	-11.3953
▁watched	-11.3954
▁totally	-11.3957
ix	-11.396
▁soil	-11.3967
assau	-11.3967
ریو	-11.3969
▁bars	-11.3971
position	-11.3971
▁گذراندن	-11.3979
▁رده	-11.3981
▁انگشتان	-11.3986
▁کوبا	-11.3986
نر	-11.3989
▁کاربرد	-11.4003
▁کوم	-11.4004
▁ناظر	-11.4009
kota	-11.401
ازم	-11.4011
▁rad	-11.4012
تونم	-11.4014
▁suppli	-11.4016
▁territori	-11.4019
▁demon	-11.402
▁programmes	-11.4023
▁benjamin	-11.4024
▁catherine	-11.4024
▁coalition	-11.4024
▁fantastic	-11.4024
▁leningrad	-11.4024
▁privacy	-11.4024
▁اقلام	-11.4024
▁جاذبه	-11.4024
▁دادگستری	-11.4024
▁ضرورت	-11.4024
▁عظمت	-11.4024
▁محاصره	-11.4024
▁نظیر	-11.4024
▁geneva	-11.4024
▁sauna	-11.4024
▁بروکسل	-11.4024
▁سرسخت	-11.4024
▁identifi	-11.4024
▁آذر	-11.4024
▁mitya	-11.4024
▁denied	-11.4024
▁منفجر	-11.4024
▁لنینگراد	-11.4024
▁leather	-11.4024
▁مطلوب	-11.4025
▁theatre	-11.4025
▁corps	-11.4025
▁کامیون	-11.4025
▁برهنه	-11.4025
▁cookies	-11.4026
▁expo	-11.4026
▁trail	-11.4028
▁inspection	-11.4028
جار	-11.4033
▁fro	-11.4033
▁perish	-11.4033
▁تحصیلات	-11.4034
▁سلطنتی	-11.4034
پرداز	-11.4036
▁kansa	-11.4041
▁properly	-11.4044
▁cosm	-11.4045
▁1200	-11.4046
▁portal	-11.4046
▁دونم	-11.4047
▁chip	-11.4047
▁پوند	-11.4048
▁kha	-11.405
▁noble	-11.4051
▁کاد	-11.4052
توف	-11.4054
▁انداختن	-11.4054
▁کریم	-11.4054
▁firmly	-11.4058
0	-11.406
▁الکترو	-11.406
▁1389	-11.4061
▁moldovan	-11.4062
▁هوس	-11.4064
▁wasnt	-11.4067
▁ژاپنی	-11.4069
▁1980	-11.4074
▁cruel	-11.4075
▁characteristics	-11.4076
▁mir	-11.4076
▁shoulders	-11.4078
▁ورق	-11.4079
▁اشلی	-11.408
▁ژول	-11.4085
▁دانستن	-11.4087
▁کرون	-11.4089
▁منشا	-11.4089
ira	-11.409
▁flying	-11.4092
▁ذهنم	-11.4092
▁سامر	-11.4093
▁گوییم	-11.4099
down	-11.41
▁کوب	-11.4108
▁banking	-11.4109
▁240	-11.4113
▁prayers	-11.4113
▁گیاه	-11.4117
▁کشند	-11.4118
slav	-11.4118
▁اسمی	-11.4123
ji	-11.4126
▁instruments	-11.4127
▁wet	-11.413
وایی	-11.4134
▁camps	-11.4135
▁آمدم	-11.4135
▁cave	-11.4137
▁continu	-11.4142
▁demanded	-11.4143
▁برپا	-11.4144
▁channel	-11.4144
▁writer	-11.4146
▁gotta	-11.4149
▁bob	-11.4154
arez	-11.4167
▁allies	-11.4178
دردی	-11.4184
▁exception	-11.419
ase	-11.4191
▁imperial	-11.4198
▁موجب	-11.42
▁wound	-11.4201
ربع	-11.4206
▁یونانی	-11.4207
▁دویدن	-11.4209
▁پاولو	-11.4209
▁کوچ	-11.4211
خوف	-11.4212
▁assume	-11.4217
▁شار	-11.4218
▁قطعی	-11.4219
▁شجاعان	-11.4221
▁خوشبخت	-11.4225
▁acknowledge	-11.4227
▁forgot	-11.4228
▁adequate	-11.4228
▁damascus	-11.4228
▁majesty	-11.4228
▁obliged	-11.4228
▁occupation	-11.4228
▁phrase	-11.4228
▁proportion	-11.4228
▁surgery	-11.4228
▁triumph	-11.4228
▁الکتریکی	-11.4228
▁تسلیحات	-11.4228
▁سرگردان	-11.4228
▁فرکانس	-11.4228
▁مفاهیم	-11.4228
▁وقایع	-11.4228
▁convey	-11.4228
▁sanctions	-11.4228
▁visible	-11.4228
▁کلمبیا	-11.4228
therapy	-11.4228
▁crystal	-11.4228
▁iowa	-11.4228
▁اسکندر	-11.4228
▁morocco	-11.4229
▁باطل	-11.4229
معه	-11.4229
▁آیووا	-11.4229
▁قاعد	-11.4229
▁mandate	-11.423
▁حوض	-11.423
▁pump	-11.423
▁collaboration	-11.4231
▁ادب	-11.4231
▁مکث	-11.4231
▁fry	-11.4233
▁discussions	-11.4234
▁supplies	-11.4234
▁controlled	-11.4235
▁غلام	-11.4236
▁jose	-11.4237
▁نکش	-11.4239
olo	-11.424
چستر	-11.4243
▁greeting	-11.4244
▁ناظران	-11.4244
▁تان	-11.4245
▁freely	-11.4245
▁قض	-11.4247
▁charm	-11.4247
▁بینداز	-11.4254
پن	-11.4257
▁وکلا	-11.4257
▁بکشم	-11.4259
دریس	-11.426
▁visiting	-11.4268
▁earned	-11.4271
▁1988	-11.4271
▁بدانم	-11.4273
▁backward	-11.4273
▁laughed	-11.4275
▁بیچ	-11.4276
▁فاز	-11.4278
▁gran	-11.4279
▁texts	-11.4279
▁عام	-11.4281
▁goodness	-11.4285
▁selling	-11.4285
▁زیبای	-11.4286
▁زیرزمینی	-11.4286
▁bind	-11.4293
chester	-11.4294
▁قهرمانان	-11.4296
▁شیب	-11.4306
پوش	-11.4307
mounted	-11.4309
▁بورس	-11.4312
▁میهنی	-11.4317
▁tur	-11.4318
▁بدین	-11.4324
▁clouds	-11.4332
▁هرکس	-11.4333
▁کیک	-11.4333
▁ابی	-11.4333
▁282	-11.434
▁سفارشی	-11.4347
ارویی	-11.4347
▁approached	-11.435
▁pattern	-11.4352
▁apostle	-11.4354
▁سفرهای	-11.4357
▁mb	-11.4358
▁speaks	-11.4368
▁جنس	-11.4371
▁نیکو	-11.4371
کوس	-11.4378
▁dana	-11.4382
▁crop	-11.4388
▁organis	-11.4394
▁دما	-11.4394
▁موسس	-11.4394
▁مگی	-11.4397
▁corners	-11.4399
mel	-11.4401
▁برقی	-11.4402
▁کامپیوتری	-11.4405
نتس	-11.4407
▁waited	-11.4409
▁classic	-11.4411
▁facilitate	-11.4415
▁بزنی	-11.4416
▁assure	-11.4427
▁seize	-11.4427
▁تبلیغ	-11.4432
▁614	-11.4433
▁نت	-11.4437
▁believing	-11.4437
▁excited	-11.4437
▁likewise	-11.4437
▁somehow	-11.4437
▁اسقف	-11.4437
▁انحلال	-11.4437
▁تعرفه	-11.4437
▁فلسفه	-11.4437
▁مسدود	-11.4437
▁ملحق	-11.4437
▁ناخواسته	-11.4437
▁پشیمان	-11.4437
▁چمدان	-11.4437
▁scream	-11.4437
▁temper	-11.4437
▁پایبند	-11.4437
▁consequent	-11.4437
▁database	-11.4437
▁intense	-11.4437
▁stipulat	-11.4437
▁بچرخ	-11.4437
▁سانچو	-11.4437
▁لاغر	-11.4437
▁ویلیام	-11.4437
▁mln	-11.4437
▁سودمند	-11.4437
▁auto	-11.4437
▁یازده	-11.4437
▁عطر	-11.4437
▁borrow	-11.4437
▁آفرین	-11.4437
▁legitimate	-11.4437
▁روانشناس	-11.4437
▁primarily	-11.4437
▁گمراه	-11.4437
▁ashley	-11.4437
▁لاستیک	-11.4437
▁صربستان	-11.4437
▁پهن	-11.4437
▁arose	-11.4437
▁membership	-11.4438
▁scheme	-11.4438
▁stake	-11.4438
▁اسارت	-11.4439
▁forgiveness	-11.444
▁نابینا	-11.4441
▁massive	-11.4441
▁representation	-11.4442
▁شناور	-11.4442
bon	-11.4442
▁gates	-11.4443
▁belarusian	-11.4443
▁beaten	-11.4443
▁بسپار	-11.4444
▁apparently	-11.4445
▁ease	-11.4445
▁nick	-11.4445
▁frequently	-11.4445
▁دزدی	-11.4447
▁خیریه	-11.4449
▁رایج	-11.4451
▁followers	-11.4451
▁غارت	-11.4451
▁aims	-11.4452
▁exclud	-11.4452
▁preserve	-11.4454
مایی	-11.4455
▁shareholders	-11.4461
▁قوت	-11.4463
▁err	-11.4465
▁founded	-11.4468
▁recommended	-11.4472
▁ریگا	-11.4474
▁wit	-11.448
▁deck	-11.4481
▁برسم	-11.4481
▁parameters	-11.4485
▁ایفا	-11.4489
▁میکرو	-11.4489
▁370	-11.4491
▁خوردند	-11.4492
▁115	-11.4493
▁refugees	-11.4495
▁shell	-11.4495
place	-11.4502
matic	-11.4505
▁desires	-11.4507
▁hills	-11.4507
▁concepts	-11.4511
oma	-11.4512
▁techniques	-11.4514
▁mechanisms	-11.4534
▁220	-11.4535
▁contracts	-11.4535
▁دیگ	-11.4536
ائیل	-11.4539
▁کنسولی	-11.4541
▁examples	-11.4546
▁woods	-11.4547
اوا	-11.4551
960	-11.456
▁wheel	-11.4565
▁خواه	-11.458
▁serge	-11.4584
▁yards	-11.4585
▁لیگ	-11.4585
کوب	-11.4587
book	-11.4591
▁گارد	-11.4594
phone	-11.4599
▁spots	-11.4599
▁ratings	-11.4602
بیل	-11.4602
▁rocks	-11.4605
▁چاق	-11.462
▁بخواب	-11.4625
▁differences	-11.463
lock	-11.4632
▁nar	-11.4633
▁cease	-11.4638
▁releases	-11.4647
▁violat	-11.4647
▁gentle	-11.4647
▁differ	-11.4648
▁neighbour	-11.4649
▁autumn	-11.4649
▁broadcast	-11.4649
▁corridor	-11.4649
▁destiny	-11.4649
▁enormous	-11.4649
▁frequency	-11.4649
▁gentiles	-11.4649
▁grindstone	-11.4649
▁guidance	-11.4649
▁memorial	-11.4649
▁migration	-11.4649
▁satisfy	-11.4649
▁smoking	-11.4649
▁stairs	-11.4649
▁throat	-11.4649
▁جنایات	-11.4649
▁غذاخوری	-11.4649
▁نقص	-11.4649
▁absence	-11.4649
▁consolidat	-11.4649
▁dispute	-11.4649
▁potato	-11.4649
▁profound	-11.4649
▁اجاق	-11.4649
▁conceal	-11.4649
▁logistics	-11.4649
▁outdoor	-11.4649
▁ناصر	-11.4649
▁عتیق	-11.4649
▁نخورد	-11.4649
▁twist	-11.465
▁metres	-11.465
▁william	-11.465
▁برزیل	-11.465
▁levites	-11.465
▁اعدام	-11.465
▁alien	-11.465
▁shook	-11.465
▁sancho	-11.465
▁capture	-11.465
▁curious	-11.465
▁transferred	-11.4651
▁تعد	-11.4651
▁quota	-11.4652
▁motion	-11.4652
▁الن	-11.4652
▁فلزات	-11.4653
▁زاده	-11.4654
▁highlight	-11.4654
▁surrounded	-11.4654
▁deeds	-11.4656
▁pause	-11.4656
▁استراحتگاه	-11.4657
▁specialized	-11.4657
▁مسلحانه	-11.4658
▁فاق	-11.4659
▁بخیر	-11.4663
▁نرو	-11.4663
▁plus	-11.4664
▁estimated	-11.4665
▁losses	-11.4667
▁هواپیمای	-11.4668
▁گذارند	-11.4669
▁deeper	-11.4681
لون	-11.4683
▁محو	-11.4684
chen	-11.4685
▁paying	-11.4686
▁دفعه	-11.4687
▁arabia	-11.4687
▁effectively	-11.4695
دوش	-11.4697
▁define	-11.4699
▁gh	-11.47
▁مامور	-11.4701
▁hatch	-11.4703
▁kan	-11.4704
▁ذهنش	-11.4704
▁shooting	-11.4717
لار	-11.4721
▁realm	-11.4721
▁بخشش	-11.4726
▁dimensions	-11.473
▁ترسیده	-11.4731
▁bathrooms	-11.4731
▁رفتیم	-11.4736
▁شاهدان	-11.4738
▁curse	-11.4744
کور	-11.4747
▁arena	-11.4749
نوف	-11.4752
▁650	-11.4753
▁نهادی	-11.4755
▁گرای	-11.4761
▁شم	-11.4762
▁commissioner	-11.4762
▁kul	-11.477
▁tale	-11.4774
▁رت	-11.4774
▁listening	-11.4775
▁الگو	-11.4778
pan	-11.478
▁habit	-11.4783
▁expense	-11.4783
meter	-11.4786
▁loan	-11.4789
▁critic	-11.479
▁fishing	-11.4795
▁لیز	-11.4803
▁chest	-11.4807
▁کوز	-11.4811
pel	-11.4818
▁170	-11.4823
▁قبرس	-11.4825
▁bless	-11.4829
▁guards	-11.4829
▁mut	-11.483
▁ابری	-11.4834
▁اع	-11.4834
▁asset	-11.4836
▁گیرنده	-11.484
far	-11.4844
▁fed	-11.4854
▁divers	-11.4855
▁ببینی	-11.4856
▁madam	-11.486
▁complain	-11.4861
▁manag	-11.4864
▁گرسن	-11.4865
▁attain	-11.4865
▁videos	-11.4865
▁brazil	-11.4867
▁collapse	-11.4867
▁demonstration	-11.4867
▁excitement	-11.4867
▁leisure	-11.4867
▁mississippi	-11.4867
▁preliminar	-11.4867
▁theoretical	-11.4867
▁انطباق	-11.4867
▁حریف	-11.4867
▁شصت	-11.4867
▁صراحت	-11.4867
▁قفسه	-11.4867
▁محموله	-11.4867
▁مدیترانه	-11.4867
▁مصلوب	-11.4867
▁breast	-11.4867
▁cheek	-11.4867
▁despair	-11.4867
▁petition	-11.4867
▁ماژول	-11.4867
▁یحیی	-11.4867
▁absorb	-11.4867
▁تدوین	-11.4867
▁سهامداران	-11.4867
▁کیشینو	-11.4867
▁recommendations	-11.4867
▁alleged	-11.4867
▁behave	-11.4867
▁grape	-11.4867
▁واسط	-11.4867
▁توماس	-11.4867
▁memorandum	-11.4867
▁pilot	-11.4867
فعلا	-11.4869
▁خشن	-11.4871
▁جذابیت	-11.4871
▁سوختنی	-11.4871
▁armies	-11.4872
▁پارامترهای	-11.4872
▁عفو	-11.4872
صیر	-11.4873
▁links	-11.4874
▁capitalism	-11.4874
ini	-11.4874
▁نما	-11.4875
▁dominat	-11.4876
پات	-11.488
▁restored	-11.488
▁خواهش	-11.4881
▁constructed	-11.4882
▁yoy	-11.4882
▁antoni	-11.4882
▁پنجه	-11.4884
▁kilometers	-11.4884
sville	-11.4885
▁کاه	-11.489
▁endless	-11.4892
▁guided	-11.4894
▁initiatives	-11.4895
▁wounded	-11.4896
▁tire	-11.4897
گام	-11.4898
▁کارآفرینی	-11.4899
▁روانی	-11.49
▁ابرها	-11.4901
▁shouted	-11.4901
▁کریس	-11.4906
▁usage	-11.4907
she	-11.4907
▁indicators	-11.4907
▁heated	-11.4908
▁soviets	-11.4911
▁cab	-11.4916
▁pest	-11.4917
سلاو	-11.4919
▁هدر	-11.4919
▁concentrate	-11.492
▁پریده	-11.4921
▁drove	-11.4921
▁1918	-11.4924
▁1970	-11.4924
▁فراز	-11.4928
▁229	-11.4928
▁cris	-11.4929
▁tribes	-11.4929
▁kn	-11.4935
ینگتون	-11.4937
▁فقرا	-11.4941
ifie	-11.4943
▁جانبه	-11.4943
▁میتونی	-11.4956
▁taxi	-11.4957
▁بنای	-11.4958
ama	-11.4963
رقه	-11.497
▁kir	-11.4972
636	-11.4977
▁wages	-11.4977
oz	-11.4979
▁برام	-11.4982
cess	-11.4984
▁kat	-11.499
▁زنجیر	-11.4991
▁طراح	-11.4991
▁regulator	-11.4992
▁فول	-11.5001
▁revenue	-11.5005
▁monument	-11.5005
▁همون	-11.5005
▁dimension	-11.5005
▁weapon	-11.5005
▁winner	-11.5007
▁secrets	-11.5008
▁caus	-11.5009
▁advisor	-11.5011
▁قلبش	-11.5013
ister	-11.5015
▁searching	-11.5017
lah	-11.502
▁older	-11.5022
▁exercises	-11.5027
▁کپ	-11.5027
قط	-11.5032
fall	-11.504
gas	-11.5041
polis	-11.5043
bat	-11.5045
▁مادرت	-11.5045
▁bent	-11.5047
ball	-11.5054
▁degrees	-11.5058
561	-11.5058
▁عرب	-11.506
▁قلبم	-11.5066
▁saints	-11.5069
tz	-11.5071
▁intent	-11.5073
▁demonstrate	-11.5078
▁possibl	-11.5079
▁resolve	-11.5081
▁قید	-11.5086
▁contradict	-11.5088
responsibilities	-11.5089
▁anxious	-11.5089
▁calendar	-11.5089
▁commerce	-11.5089
▁congregation	-11.5089
▁delicate	-11.5089
▁excursion	-11.5089
▁knife	-11.5089
▁mediterranean	-11.5089
▁nowadays	-11.5089
▁overlook	-11.5089
▁participating	-11.5089
▁patience	-11.5089
▁synagogue	-11.5089
▁unusual	-11.5089
▁worldwide	-11.5089
▁ارکستر	-11.5089
▁اقوام	-11.5089
▁تاتارستان	-11.5089
▁تقویم	-11.5089
▁حوادث	-11.5089
▁داکوتا	-11.5089
▁عبارات	-11.5089
▁لجستیک	-11.5089
▁murmur	-11.5089
▁اجسا	-11.5089
▁خودمختار	-11.5089
▁mirror	-11.5089
▁شتاب	-11.5089
▁لاویان	-11.5089
▁grasp	-11.5089
▁terminal	-11.5089
▁ilham	-11.5089
▁tatarstan	-11.5089
▁tariff	-11.5089
▁crown	-11.5089
▁odd	-11.5089
▁laboratory	-11.5089
▁دردناک	-11.509
▁تعویض	-11.509
▁خاتم	-11.509
▁combination	-11.509
▁compassion	-11.509
▁urban	-11.509
▁lavr	-11.509
▁relief	-11.509
▁peasantry	-11.509
▁پیرزن	-11.5091
▁baltic	-11.5091
▁swim	-11.5092
▁ستاد	-11.5092
▁travelling	-11.5093
▁riga	-11.5094
▁lamp	-11.5094
▁حامیان	-11.5095
▁خبرنگاران	-11.5095
▁مهار	-11.5095
▁whatsoever	-11.5096
▁grey	-11.5097
▁ارا	-11.5099
▁بخواهیم	-11.51
▁deposits	-11.5102
▁limits	-11.5104
▁verse	-11.5104
▁floors	-11.5104
▁خوابگاه	-11.5107
▁جغرافیای	-11.5107
▁برگردد	-11.5108
▁eve	-11.5109
▁ساختارهای	-11.5111
▁pitch	-11.5112
▁institutional	-11.5113
▁mutually	-11.5114
▁risen	-11.5117
▁museums	-11.5118
▁عم	-11.5118
▁دهک	-11.5122
▁کوچکترین	-11.5125
▁اسمیت	-11.5126
▁مشتاقان	-11.5126
▁knees	-11.5135
▁1905	-11.5143
esh	-11.5149
▁deeply	-11.5151
▁enhance	-11.5155
▁لوک	-11.5157
نکا	-11.5158
▁jumped	-11.5158
ینسکی	-11.5159
▁drugs	-11.5161
▁religions	-11.5165
▁دوستت	-11.5171
▁تاریخچه	-11.5171
▁wondered	-11.5172
▁جادوی	-11.5173
▁exports	-11.5176
▁keys	-11.5177
▁wheels	-11.5177
▁اینچ	-11.5182
▁naturally	-11.5184
▁onto	-11.519
▁850	-11.519
▁agents	-11.5195
▁اپراتور	-11.5195
▁شکم	-11.5196
▁گره	-11.5197
یتز	-11.5199
low	-11.5204
▁نماند	-11.5205
صدها	-11.5214
نمود	-11.5219
▁منظورت	-11.5221
▁اسکو	-11.5221
▁اعضا	-11.5222
▁vary	-11.5228
eries	-11.5229
اسائو	-11.5232
▁technique	-11.5232
▁brave	-11.5233
▁norm	-11.5235
▁نامزدها	-11.5237
▁crossing	-11.5238
▁دشواری	-11.5238
▁هشتم	-11.5247
▁cis	-11.5249
▁کالی	-11.5252
iti	-11.5259
ney	-11.5265
▁mp	-11.5266
▁عموی	-11.5267
▁ولس	-11.5269
ella	-11.527
▁specially	-11.5277
626	-11.5287
▁sigh	-11.5289
▁میرم	-11.529
▁commissioned	-11.5292
▁spin	-11.5299
▁دیوان	-11.5305
▁feared	-11.5306
▁پیگیر	-11.5306
▁interpret	-11.5314
▁دموکرات	-11.5315
▁ویکتور	-11.5315
▁سوسیال	-11.5315
▁inherit	-11.5316
▁attached	-11.5316
▁caution	-11.5316
▁cheese	-11.5316
▁contrast	-11.5316
▁deliberate	-11.5316
▁doctrine	-11.5316
▁expenditure	-11.5316
▁memories	-11.5316
▁monetary	-11.5316
▁muhammad	-11.5316
▁orchestra	-11.5316
▁propaganda	-11.5316
▁quixote	-11.5316
▁somewhat	-11.5316
▁اکمولا	-11.5316
▁ذینفع	-11.5316
▁مشروع	-11.5316
▁مگابایت	-11.5316
▁width	-11.5316
▁بخواهم	-11.5316
▁پیراهن	-11.5316
▁گرافیک	-11.5316
▁abandon	-11.5316
▁sweden	-11.5316
▁raising	-11.5316
▁انگور	-11.5316
▁brush	-11.5316
▁بگویند	-11.5317
▁بقا	-11.5317
▁flew	-11.5317
▁discrimination	-11.5317
▁dawn	-11.5317
▁hungry	-11.5317
▁metro	-11.5317
▁integrity	-11.5317
▁شرارت	-11.5317
▁واگن	-11.5317
▁sqm	-11.5318
▁everyday	-11.5319
▁grade	-11.5319
▁بالتیک	-11.5319
▁فرمود	-11.532
▁سوزن	-11.5321
▁استپان	-11.5321
▁weakness	-11.5321
▁سوزی	-11.5322
▁فرمول	-11.5322
bert	-11.5323
▁joke	-11.5324
▁offence	-11.5325
▁علف	-11.5325
▁نباشید	-11.5328
▁furnished	-11.5328
▁photograph	-11.5331
▁philistines	-11.5335
▁175	-11.5335
ook	-11.5336
رعه	-11.5336
▁دوخت	-11.5337
▁jean	-11.5337
▁exhibitions	-11.5338
▁یگان	-11.5338
▁employed	-11.534
▁stepped	-11.534
ولین	-11.5341
▁مستند	-11.5341
▁تراز	-11.5344
▁ترسیم	-11.5349
دها	-11.535
▁شناسید	-11.5351
قاب	-11.536
▁هیچکس	-11.5363
▁بازده	-11.5366
than	-11.5371
▁ریو	-11.5372
▁توانش	-11.5388
▁disk	-11.5389
▁جادوگر	-11.5398
▁بدهیم	-11.5399
▁پیست	-11.5409
▁heavenly	-11.5412
▁merc	-11.5421
▁lawyers	-11.5428
▁shortly	-11.5432
امو	-11.5437
▁206	-11.5441
▁sho	-11.5443
▁بدنه	-11.5447
▁bearing	-11.5453
▁cycl	-11.5456
▁نیروها	-11.546
▁خرس	-11.5471
▁میهن	-11.5475
▁بستن	-11.5482
▁کشم	-11.5486
ندیده	-11.5488
صحیح	-11.5489
▁symbols	-11.549
تحمل	-11.549
طرف	-11.549
▁رسیدم	-11.5497
▁fees	-11.5506
▁professionals	-11.5507
▁answering	-11.5507
▁rings	-11.5508
print	-11.5515
▁accord	-11.5519
▁پیچید	-11.5521
▁extreme	-11.5536
▁arrange	-11.5536
ata	-11.5538
▁رول	-11.5543
▁corrupt	-11.5546
▁educat	-11.5546
▁نورل	-11.5547
▁accommodate	-11.5549
▁bishkek	-11.5549
▁cancellation	-11.5549
▁circuit	-11.5549
▁criteria	-11.5549
▁distress	-11.5549
▁extension	-11.5549
▁facility	-11.5549
▁gravity	-11.5549
▁intelligent	-11.5549
▁liberty	-11.5549
▁meggie	-11.5549
▁offshore	-11.5549
▁philosophy	-11.5549
▁recruit	-11.5549
▁sabbath	-11.5549
▁specify	-11.5549
▁انفرادی	-11.5549
▁جناح	-11.5549
▁فاحش	-11.5549
▁مزاحم	-11.5549
▁هجوم	-11.5549
▁rouble	-11.5549
▁بنیامین	-11.5549
▁مصالح	-11.5549
▁outstanding	-11.5549
▁متعال	-11.5549
▁savior	-11.5549
▁تاکتیک	-11.5549
▁بیشکک	-11.5549
▁خورم	-11.5549
▁کارگروه	-11.5549
▁distort	-11.5549
▁diameter	-11.5549
▁isaac	-11.5549
▁ashamed	-11.5549
▁سرطان	-11.5549
▁کریستال	-11.5549
▁مضر	-11.5549
▁ژامب	-11.5549
▁productivity	-11.5549
▁wander	-11.5549
▁ongoing	-11.5549
▁گاراژ	-11.5549
▁گردشگران	-11.555
▁fancy	-11.555
▁آلبرت	-11.555
▁garage	-11.555
▁wireless	-11.555
▁renewable	-11.555
▁readiness	-11.555
▁childhood	-11.5551
▁کابل	-11.5551
▁albert	-11.5551
▁پنبه	-11.5552
▁زره	-11.5552
▁آینه	-11.5552
▁grab	-11.5552
▁harry	-11.5552
▁coverage	-11.5552
▁داوطلبانه	-11.5553
▁لکه	-11.5553
حاق	-11.5553
▁gray	-11.5553
▁مواز	-11.5554
▁organizers	-11.5554
▁awareness	-11.5555
▁deaf	-11.5555
▁levin	-11.5556
▁تزار	-11.5557
▁unified	-11.5559
▁اسکان	-11.5565
▁غافلگیر	-11.5565
▁turk	-11.5567
▁tail	-11.5568
▁جولی	-11.5568
▁کدهای	-11.5569
▁whispered	-11.5575
▁departed	-11.5576
▁مربیان	-11.5577
▁electrical	-11.558
▁jane	-11.5581
▁indicated	-11.5586
▁riot	-11.5591
▁اخم	-11.5593
▁درگذشت	-11.5595
▁زشت	-11.5598
▁نوشید	-11.5599
▁افت	-11.56
▁سینما	-11.5601
▁portion	-11.5605
▁پیامک	-11.5609
▁rd	-11.5614
▁implementing	-11.5614
▁couldnt	-11.5614
▁صریح	-11.5615
▁نحوی	-11.5618
▁believers	-11.5619
▁بتوان	-11.5621
▁cable	-11.5623
▁therein	-11.5623
▁اعم	-11.5628
▁linked	-11.563
اکوف	-11.5632
▁دانشجوی	-11.5636
▁monuments	-11.5637
▁drinks	-11.5637
▁مکن	-11.5644
▁دیوارهای	-11.5648
▁5000	-11.565
ادو	-11.5655
▁سرود	-11.5657
لینگ	-11.5667
▁strengthened	-11.5667
law	-11.5669
▁hoped	-11.5669
▁شنی	-11.5673
chin	-11.5677
▁سخنران	-11.5685
▁snap	-11.5686
▁تفریح	-11.5692
▁نگیر	-11.5699
▁requested	-11.5704
▁flame	-11.5705
هایشان	-11.5708
جویان	-11.5716
322	-11.572
▁خدایت	-11.572
▁studying	-11.5722
▁شناختن	-11.5733
▁dav	-11.5743
ستن	-11.5744
▁740	-11.5745
▁انسانها	-11.5751
▁برگشته	-11.5756
▁شکن	-11.5756
▁install	-11.5757
▁depart	-11.5757
ace	-11.5758
▁103	-11.5758
▁1500	-11.5765
▁fal	-11.5772
▁convince	-11.5776
▁آرای	-11.5779
▁تعطیل	-11.5782
▁210	-11.5783
▁زانو	-11.5786
▁alexandr	-11.5787
▁ascension	-11.5787
▁belgium	-11.5787
▁centuries	-11.5787
▁evaluate	-11.5787
▁exhaust	-11.5787
▁fragment	-11.5787
▁medvedev	-11.5787
▁pharisees	-11.5787
▁poverty	-11.5787
▁species	-11.5787
▁survival	-11.5787
▁tabernacle	-11.5787
▁thread	-11.5787
▁virtue	-11.5787
▁امپریالیست	-11.5787
▁ترانزیت	-11.5787
▁تورنمنت	-11.5787
▁فریسیان	-11.5787
▁معشوق	-11.5787
▁کیزیلوردا	-11.5787
▁innocent	-11.5787
▁تکنولوژی	-11.5787
▁خدمه	-11.5787
▁خوشایند	-11.5787
▁هنجار	-11.5787
▁کاراگاند	-11.5787
▁گارانتی	-11.5787
▁deceive	-11.5787
▁barrel	-11.5787
▁graphic	-11.5787
▁سامارا	-11.5787
▁samara	-11.5787
▁plunge	-11.5787
▁نیکلاس	-11.5788
▁شارژ	-11.5788
▁pond	-11.5788
▁denver	-11.5788
▁aircraft	-11.5788
▁hungary	-11.5788
▁گذرنامه	-11.5788
▁فروتن	-11.5788
▁ویدیویی	-11.5789
▁tiny	-11.5789
▁involvement	-11.5789
▁فینال	-11.5789
▁نوسان	-11.5789
▁مایکل	-11.579
▁crew	-11.579
▁نادان	-11.579
▁titan	-11.579
▁alex	-11.5791
▁کشاورزان	-11.5792
▁poet	-11.5792
▁پراگ	-11.5793
▁duma	-11.5793
▁نمیتونی	-11.5793
▁adam	-11.5794
▁القا	-11.5794
▁آلودگی	-11.5794
▁sunny	-11.5795
▁دنور	-11.5795
▁merit	-11.5796
▁informs	-11.5796
▁madame	-11.5798
▁grin	-11.5798
▁highway	-11.58
▁conviction	-11.5802
▁mono	-11.5804
▁justified	-11.5805
▁الله	-11.5808
cho	-11.581
▁حوصله	-11.581
▁انتشارات	-11.5811
▁ranking	-11.5817
پورت	-11.5822
▁riding	-11.5826
▁correction	-11.5826
▁graduates	-11.5827
▁socio	-11.5827
▁equally	-11.5827
▁دشت	-11.5829
▁marks	-11.5833
▁سالهای	-11.5834
▁troubled	-11.5835
▁کلان	-11.5836
▁vain	-11.5836
▁1969	-11.5837
▁gathering	-11.5844
تونیو	-11.5844
▁تاجر	-11.5845
▁bike	-11.5847
▁displayed	-11.585
▁extract	-11.5851
▁functioning	-11.5852
▁گیل	-11.5857
▁اوباما	-11.5857
▁neo	-11.5858
▁contents	-11.5861
▁خداحافظی	-11.5862
▁هد	-11.5866
▁jog	-11.5868
▁reduc	-11.5869
▁پانل	-11.5872
750	-11.5873
hon	-11.5877
▁revenues	-11.5878
▁105	-11.5879
چشمه	-11.588
▁رسیدیم	-11.5884
▁برگشتم	-11.5887
▁زنجیره	-11.5893
sten	-11.5898
een	-11.59
▁صداهای	-11.5901
▁عروس	-11.5901
ula	-11.5916
▁بشی	-11.592
▁وحش	-11.5922
▁قور	-11.5923
▁rank	-11.5926
▁flights	-11.5931
▁دادستانی	-11.5931
▁nikola	-11.5933
▁dragg	-11.5934
ancy	-11.5935
▁bor	-11.5936
▁الکترونیک	-11.5937
▁chat	-11.594
▁relatives	-11.5941
▁lad	-11.5943
▁114	-11.5944
hold	-11.5944
▁haz	-11.5952
ovna	-11.5955
▁kor	-11.5972
▁waves	-11.5973
ربستان	-11.5977
نشین	-11.5977
فعال	-11.598
341	-11.5985
▁adding	-11.5986
▁guns	-11.5987
▁225	-11.5988
▁impress	-11.5993
▁openly	-11.5995
▁stretch	-11.6003
▁accomplish	-11.6003
▁کاست	-11.6004
▁ger	-11.6007
▁relat	-11.601
▁gil	-11.6014
ona	-11.6015
▁distinct	-11.6019
▁zones	-11.6019
▁آیی	-11.6023
▁معیار	-11.6023
▁exploit	-11.6028
▁sovereign	-11.603
▁accessories	-11.6031
▁acquisition	-11.6031
▁altogether	-11.6031
▁complicated	-11.6031
▁definition	-11.6031
▁divorce	-11.6031
▁eleven	-11.6031
▁equivalent	-11.6031
▁faculty	-11.6031
▁identification	-11.6031
▁kenesh	-11.6031
▁module	-11.6031
▁prague	-11.6031
▁presidency	-11.6031
▁receipt	-11.6031
▁retreat	-11.6031
▁بفهمد	-11.6031
▁بفهمم	-11.6031
▁تثلیث	-11.6031
▁تطبیق	-11.6031
▁تناسب	-11.6031
▁ضمانت	-11.6031
▁عوارض	-11.6031
▁غیریهودیان	-11.6031
▁پدربزرگ	-11.6031
▁scratch	-11.6031
▁stimulat	-11.6031
▁trinity	-11.6031
▁گمشده	-11.6031
dmitry	-11.6031
▁injury	-11.6031
▁invalid	-11.6031
▁جریمه	-11.6031
▁شاعر	-11.6031
▁فراغت	-11.6031
▁prompt	-11.6031
▁مملو	-11.6031
▁فرعی	-11.6031
▁تقدیس	-11.6031
▁boost	-11.6031
▁obama	-11.6031
▁کنعان	-11.6031
▁conform	-11.6031
▁مخزن	-11.6031
▁دبیرستان	-11.6031
▁gentlemen	-11.6032
▁ذره	-11.6032
▁مترجم	-11.6032
▁گودال	-11.6032
▁pillar	-11.6032
▁rubles	-11.6032
▁ایست	-11.6032
▁درایو	-11.6032
▁denial	-11.6032
▁مبارزات	-11.6033
▁پناهگاه	-11.6033
▁sharing	-11.6033
▁regiment	-11.6034
▁مدود	-11.6034
▁awful	-11.6034
▁competitiveness	-11.6035
▁پورتال	-11.6035
▁نشوید	-11.6039
▁bones	-11.6039
▁الگوهای	-11.6039
▁sustain	-11.6041
▁diverse	-11.6042
▁upright	-11.6042
▁بیاورند	-11.6042
▁زیان	-11.6042
▁instructed	-11.6043
▁کیلو	-11.6043
▁بارد	-11.6047
▁استونی	-11.6047
▁indian	-11.6054
▁melt	-11.6054
▁گردان	-11.6054
▁نگاران	-11.6054
▁919	-11.6055
person	-11.6055
▁factory	-11.6055
▁گمان	-11.6057
▁اختیارات	-11.6059
▁نگهبانان	-11.6059
▁accomplished	-11.6059
▁singing	-11.606
▁shy	-11.6061
سبت	-11.6063
▁fur	-11.6063
▁دوبل	-11.6063
▁gaze	-11.6064
400	-11.6066
▁crash	-11.6068
▁sisters	-11.608
▁quietly	-11.608
▁announce	-11.6081
▁employers	-11.6082
▁records	-11.6082
▁cop	-11.6086
▁advis	-11.6086
▁کشیدند	-11.6086
▁متحدان	-11.6089
▁adjusted	-11.6091
▁845	-11.6093
▁accordingly	-11.6098
▁فرش	-11.6099
▁passengers	-11.6103
▁rulers	-11.6107
▁مسیحیت	-11.6107
▁ox	-11.6108
876	-11.6112
▁descend	-11.6112
▁suck	-11.6113
hat	-11.6115
▁ranks	-11.6117
▁maintained	-11.6123
دیس	-11.6126
▁touching	-11.6128
▁models	-11.613
▁پرم	-11.613
▁exceptional	-11.613
باس	-11.6131
ئیل	-11.6132
jan	-11.6132
▁channels	-11.6132
▁writes	-11.6132
▁bid	-11.6134
وگرافی	-11.6138
lac	-11.6139
▁112	-11.6139
▁داران	-11.6141
▁attacked	-11.6144
▁sec	-11.6151
▁stepan	-11.6159
▁مرج	-11.6175
▁routes	-11.6176
▁covering	-11.6186
▁سوسیالیست	-11.6187
اتو	-11.6189
▁consum	-11.619
▁کراس	-11.6195
▁adult	-11.6197
▁component	-11.6197
▁رسم	-11.6204
شرف	-11.6208
لینگتون	-11.621
▁teachings	-11.6212
312	-11.6216
▁visitor	-11.6221
▁ple	-11.6228
▁produc	-11.624
▁fran	-11.624
ادیان	-11.6241
▁حافظ	-11.6243
▁disappear	-11.6253
▁whisper	-11.6253
▁پین	-11.6253
▁burst	-11.6258
▁rav	-11.6259
▁غافل	-11.6263
▁subsequent	-11.6267
▁انجی	-11.6271
▁بیاموز	-11.6277
▁exhibit	-11.6278
▁automatic	-11.628
▁abkhazia	-11.6281
▁comparison	-11.6281
▁cuisine	-11.6281
▁depriv	-11.6281
▁dignity	-11.6281
▁dominica	-11.6281
▁kettle	-11.6281
▁krasno	-11.6281
▁neutral	-11.6281
▁prevail	-11.6281
▁psychological	-11.6281
▁reputation	-11.6281
▁sponsor	-11.6281
▁vienna	-11.6281
▁آرژانتین	-11.6281
▁درخشید	-11.6281
▁مستعمر	-11.6281
▁مشمول	-11.6281
▁نصیحت	-11.6281
▁cotton	-11.6281
▁crucial	-11.6281
▁retain	-11.6281
▁stroke	-11.6281
▁رکورد	-11.6281
▁مکعب	-11.6281
▁ناپاک	-11.6281
▁grateful	-11.6281
▁organic	-11.6281
▁estonia	-11.6281
▁humble	-11.6281
▁بنزین	-11.6281
▁vineyard	-11.6281
▁canaan	-11.6281
▁mailbox	-11.6281
▁henry	-11.6281
▁پیلا	-11.6281
▁نیاورد	-11.6281
▁worm	-11.6281
▁assert	-11.6281
▁prosperity	-11.6281
▁محرک	-11.6282
▁قیاف	-11.6282
▁copies	-11.6282
▁imagination	-11.6282
▁cattle	-11.6282
▁خوانندگان	-11.6282
▁ویروس	-11.6282
▁gross	-11.6283
▁معلولیت	-11.6283
▁بوریس	-11.6283
mour	-11.6283
▁شفافیت	-11.6284
بدل	-11.6284
▁coordination	-11.6284
▁inspired	-11.6284
▁fabric	-11.6284
▁چنگ	-11.6285
▁returning	-11.6286
▁disposal	-11.6286
▁غول	-11.6287
▁وحشیانه	-11.6288
▁scattered	-11.6288
▁effectiveness	-11.6288
اواسط	-11.6288
▁کرسی	-11.6289
▁exit	-11.6289
▁بترس	-11.629
▁عمدا	-11.6291
▁zion	-11.6292
▁lifetime	-11.6293
▁خش	-11.6295
▁خواهان	-11.6297
▁tempted	-11.6298
▁ego	-11.63
▁brussels	-11.6301
▁طلبی	-11.6304
▁lucky	-11.6305
▁alter	-11.6306
nto	-11.6307
▁106	-11.6309
▁کراسنو	-11.631
▁opt	-11.631
▁approaches	-11.631
▁312	-11.6315
▁thereby	-11.6316
209	-11.6318
▁عزم	-11.6318
▁athletes	-11.6323
▁torn	-11.6326
▁ایلیا	-11.6328
▁separated	-11.6339
▁آلیس	-11.6342
▁functional	-11.6351
▁موم	-11.6355
▁bury	-11.6356
▁جادو	-11.6358
▁358	-11.6359
▁دوز	-11.636
▁پویای	-11.6363
avi	-11.6363
اخذ	-11.6363
▁1944	-11.6367
▁آرد	-11.6371
▁111	-11.6379
iable	-11.6381
▁shoe	-11.6382
cuba	-11.6385
▁bai	-11.6386
▁آسیاب	-11.6388
▁سازش	-11.6388
▁اونا	-11.639
▁بناها	-11.6398
▁گیاهی	-11.6399
▁مدتها	-11.6407
▁134	-11.6407
▁تبر	-11.6413
▁260	-11.6415
cle	-11.6418
نیس	-11.6428
▁jami	-11.6443
▁تلف	-11.6446
رسانی	-11.6448
▁دیش	-11.6453
approved	-11.6453
▁tourists	-11.6458
▁پوشید	-11.6459
▁فال	-11.646
▁counting	-11.6466
▁specialist	-11.6467
روز	-11.6472
▁prisoner	-11.6476
612	-11.6487
▁reserves	-11.6492
253	-11.6497
▁promises	-11.6504
▁reporting	-11.6505
▁tie	-11.6519
▁topics	-11.6525
▁propose	-11.6526
▁هول	-11.6527
▁281	-11.653
▁بنوش	-11.6535
▁hop	-11.6536
▁editor	-11.6536
▁alyosha	-11.6537
▁authentic	-11.6537
▁autonomous	-11.6537
▁brilliant	-11.6537
▁cathedral	-11.6537
▁delegate	-11.6537
▁disclosure	-11.6537
▁emerging	-11.6537
▁escort	-11.6537
▁gesture	-11.6537
▁necessarily	-11.6537
▁nicholas	-11.6537
▁parallel	-11.6537
▁petroleum	-11.6537
▁recreation	-11.6537
▁reproach	-11.6537
▁sentiment	-11.6537
▁solving	-11.6537
▁supervision	-11.6537
▁supplement	-11.6537
▁آلیوشا	-11.6537
▁تخیل	-11.6537
▁تعظیم	-11.6537
▁خرگوش	-11.6537
▁درخشش	-11.6537
▁محتاط	-11.6537
▁محرمانه	-11.6537
▁معاینه	-11.6537
▁نجیب	-11.6537
▁album	-11.6537
▁ghost	-11.6537
▁slept	-11.6537
▁آلبوم	-11.6537
▁بوداپست	-11.6537
▁منشویک	-11.6537
▁oath	-11.6537
▁صهیون	-11.6537
▁مبارک	-11.6537
▁tolerance	-11.6537
▁چارلی	-11.6537
▁domain	-11.6537
▁ماساژ	-11.6537
▁distract	-11.6537
▁مقدماتی	-11.6537
▁نسبی	-11.6537
▁interference	-11.6537
▁float	-11.6537
▁optimis	-11.6537
▁برسند	-11.6538
▁compris	-11.6538
▁exposed	-11.6538
▁flock	-11.6538
▁متوالی	-11.6538
▁منصفانه	-11.6538
▁ناشناس	-11.6538
▁flee	-11.6538
▁صداقت	-11.6539
▁بفروش	-11.6539
▁label	-11.6539
▁specifically	-11.6539
▁pound	-11.6539
▁هیولا	-11.6539
▁laughter	-11.654
▁romantic	-11.654
▁cabin	-11.654
▁brew	-11.654
▁تبعید	-11.6541
▁مسح	-11.6541
▁تختخواب	-11.6542
▁شیمی	-11.6542
▁فائو	-11.6543
▁8136	-11.6543
▁accused	-11.6544
▁meals	-11.6545
▁بکشید	-11.6545
▁خادمان	-11.6546
▁evidently	-11.6546
▁تیغ	-11.6547
▁rebel	-11.6548
▁examined	-11.6548
▁tsar	-11.6549
▁arranged	-11.6549
▁طلاق	-11.6549
▁illness	-11.655
▁hint	-11.655
▁بدانیم	-11.655
born	-11.6551
▁affection	-11.6553
▁businessmen	-11.6553
▁ابتکارات	-11.6554
▁acquired	-11.6554
▁افق	-11.6555
▁cord	-11.6557
▁بازیگران	-11.6559
▁لزوما	-11.656
▁lev	-11.6571
▁organised	-11.6572
پولیس	-11.6572
گویی	-11.6574
▁imperialist	-11.6574
▁mixed	-11.6575
▁صمیمی	-11.6576
▁پیامبران	-11.6578
▁مکزیک	-11.658
▁regularly	-11.6581
some	-11.6583
▁صدایش	-11.6585
▁kam	-11.6592
▁kw	-11.66
▁claimed	-11.6602
▁expanded	-11.6607
▁گذارم	-11.6607
▁elect	-11.6617
▁نیکولای	-11.6618
▁قند	-11.6619
▁leon	-11.662
▁foreigners	-11.6623
▁نار	-11.6627
▁attracted	-11.6629
▁strongly	-11.664
▁سرما	-11.664
▁tied	-11.6647
▁jam	-11.6658
▁lime	-11.6659
udge	-11.6663
oh	-11.6666
▁بوف	-11.667
قوه	-11.6672
▁هراس	-11.6676
▁مذهب	-11.6681
زش	-11.6689
▁menu	-11.6691
▁dun	-11.6693
▁نود	-11.6694
▁تروریست	-11.6706
duce	-11.6708
▁آخ	-11.6715
▁drug	-11.6717
▁buying	-11.6717
▁certificates	-11.6717
▁counted	-11.6719
▁104	-11.6726
اریان	-11.6727
اختیار	-11.6741
▁eliminate	-11.6743
▁innovations	-11.6748
ott	-11.6756
▁slid	-11.6758
▁metals	-11.6765
توسل	-11.6767
▁ورزشکار	-11.6779
▁advantages	-11.6782
▁لاک	-11.6785
▁engage	-11.6788
▁examine	-11.6791
▁congratulate	-11.6795
▁confront	-11.6798
▁afford	-11.6798
allas	-11.6799
▁administrator	-11.68
▁budapest	-11.68
▁bureau	-11.68
▁collar	-11.68
▁contempt	-11.68
▁decisive	-11.68
▁goodwill	-11.68
▁hebrew	-11.68
▁hectares	-11.68
▁jurisdiction	-11.68
▁mathematic	-11.68
▁menshevik	-11.68
▁nebraska	-11.68
▁obstacle	-11.68
▁offensive	-11.68
▁pacific	-11.68
▁prestig	-11.68
▁rhett	-11.68
▁substantial	-11.68
▁tragedy	-11.68
▁اعلیحضرت	-11.68
▁تفلیس	-11.68
▁خوشمزه	-11.68
▁دیفندرز	-11.68
▁مستغلات	-11.68
▁مصنوعی	-11.68
▁منعقد	-11.68
▁نامحدود	-11.68
▁نبراسکا	-11.68
▁هجده	-11.68
▁کاتالوگ	-11.68
▁provoke	-11.68
▁خزانه	-11.68
▁مصوب	-11.68
▁فاسد	-11.68
▁buried	-11.68
▁دلسوز	-11.68
▁redeem	-11.68
▁بذر	-11.68
▁oriented	-11.68
▁میزگرد	-11.68
▁تئوری	-11.68
▁غالب	-11.68
▁closing	-11.6801
▁scared	-11.6801
▁cancer	-11.6801
▁moderate	-11.6801
▁ملانی	-11.6801
▁انبیا	-11.6801
▁restrictions	-11.6801
▁بگرد	-11.6801
▁constructive	-11.6801
▁نروژ	-11.6801
▁repentance	-11.6801
▁کارفرمایان	-11.6801
▁faint	-11.6802
▁foolish	-11.6802
▁رادیویی	-11.6802
▁boris	-11.6802
▁بیابید	-11.6802
▁سونیا	-11.6803
▁argue	-11.6803
▁چنگال	-11.6803
▁رزمی	-11.6803
لنت	-11.6804
▁لوسی	-11.6804
▁نشری	-11.6804
▁gulf	-11.6804
▁enlarged	-11.6806
▁airline	-11.6807
ox	-11.6807
▁countryside	-11.6808
▁toast	-11.6809
▁زیباترین	-11.6809
berry	-11.681
▁شدگان	-11.6811
▁replaced	-11.6811
▁اطلاعیه	-11.6812
▁spell	-11.6815
▁باتری	-11.6815
llied	-11.6815
▁lust	-11.6816
▁seized	-11.6817
▁respectively	-11.6819
▁ریزد	-11.682
▁prohibited	-11.6826
▁insist	-11.6827
▁ایستادند	-11.6828
▁goat	-11.6832
▁دهانش	-11.6837
ارغ	-11.6844
▁bud	-11.6851
▁kindergartens	-11.6851
▁بزنیم	-11.6853
ckle	-11.6855
▁mud	-11.6856
▁1930	-11.6859
▁locked	-11.6859
▁109	-11.6861
بیا	-11.6861
▁تحول	-11.6862
▁اسد	-11.687
▁دیل	-11.687
eller	-11.6872
▁fairly	-11.6877
▁complaints	-11.6879
▁ماندند	-11.6881
999	-11.6883
▁1939	-11.6886
ovsky	-11.6886
▁bloody	-11.6893
▁bin	-11.6897
▁بیکاری	-11.69
329	-11.6901
▁dynamic	-11.6903
▁ties	-11.6904
202	-11.6915
▁دوما	-11.6915
شته	-11.693
▁unite	-11.6931
▁توهم	-11.6938
aya	-11.6938
▁همسران	-11.6939
▁hub	-11.6945
106	-11.696
▁جات	-11.6966
▁ریل	-11.6966
▁poster	-11.6969
نچ	-11.6984
▁conclusions	-11.6985
▁egg	-11.6987
▁commandment	-11.6993
▁chu	-11.7011
power	-11.7012
سریع	-11.7012
▁employ	-11.7031
▁ثانی	-11.7033
▁preced	-11.7035
▁plat	-11.7037
برت	-11.7038
▁lend	-11.7042
▁bloc	-11.7052
▁513	-11.7054
ivity	-11.7055
▁haste	-11.7063
▁replace	-11.7064
▁hung	-11.7065
▁democrat	-11.7066
▁virgin	-11.7067
▁negotiat	-11.7068
▁disturb	-11.707
▁hydro	-11.707
▁aggression	-11.7071
▁competence	-11.7071
▁curiosity	-11.7071
▁despise	-11.7071
▁disaster	-11.7071
▁energies	-11.7071
▁episode	-11.7071
▁exclaimed	-11.7071
▁exploration	-11.7071
▁extremism	-11.7071
▁fyodor	-11.7071
▁infinite	-11.7071
▁instinct	-11.7071
▁nazareth	-11.7071
▁northeast	-11.7071
▁precinct	-11.7071
▁samuel	-11.7071
▁surrender	-11.7071
▁welfare	-11.7071
▁تمسخر	-11.7071
▁رستگار	-11.7071
▁طناب	-11.7071
▁هلدینگ	-11.7071
▁column	-11.7071
▁confused	-11.7071
▁fierce	-11.7071
▁glitter	-11.7071
▁harbor	-11.7071
▁لئون	-11.7071
▁مجزا	-11.7071
▁enrich	-11.7071
▁دومینیکن	-11.7071
▁فهمم	-11.7071
▁conquer	-11.7071
▁distant	-11.7071
▁fond	-11.7071
▁strive	-11.7071
▁تاکستان	-11.7071
▁توریستی	-11.7071
▁غرغر	-11.7071
▁impetu	-11.7071
▁اختلال	-11.7071
▁تموم	-11.7071
▁hegel	-11.7071
▁اودسا	-11.7071
▁immun	-11.7071
▁نسیم	-11.7071
▁آبخازیا	-11.7071
▁francisco	-11.7071
▁ربطی	-11.7071
▁procurement	-11.7071
▁هگل	-11.7071
▁trafficking	-11.7071
▁prominen	-11.7071
craft	-11.7072
▁cabinet	-11.7072
▁evaluation	-11.7072
▁irish	-11.7072
شهود	-11.7072
▁ussr	-11.7073
▁تدارکات	-11.7074
▁elevator	-11.7075
▁simultaneously	-11.7075
552	-11.7075
▁congratulat	-11.7075
▁oven	-11.7076
▁ختن	-11.7077
▁قضات	-11.7077
▁progressive	-11.7077
▁نوجوانان	-11.7078
▁عینک	-11.7079
▁بابت	-11.7079
leasing	-11.708
▁دیپلمات	-11.7081
▁جوگو	-11.7083
▁کفر	-11.7085
▁lowest	-11.7085
▁شناسد	-11.7086
▁fao	-11.7087
▁تمرینات	-11.7089
entrepreneurship	-11.709
▁assembled	-11.7093
▁لیبی	-11.7096
▁utterly	-11.7096
▁african	-11.7097
▁برنز	-11.71
▁softly	-11.71
▁310	-11.7102
▁gam	-11.7104
▁شاگردانش	-11.7105
روت	-11.7106
▁mechanical	-11.7108
227	-11.711
▁بدهند	-11.7114
▁deb	-11.7115
▁bowed	-11.7117
▁reigned	-11.7117
▁slide	-11.712
▁منته	-11.7122
▁observers	-11.7124
▁دروغین	-11.7129
illa	-11.7134
▁برگردم	-11.7134
▁پوز	-11.7137
▁ارض	-11.7137
▁1987	-11.7139
▁دانستیم	-11.7141
▁matt	-11.7145
▁notification	-11.7147
▁consula	-11.715
productive	-11.7151
بال	-11.7157
▁دوام	-11.7169
▁timo	-11.717
▁photographs	-11.7171
kel	-11.7176
050	-11.7189
▁prayed	-11.719
radi	-11.7191
▁tear	-11.7197
▁کشیدم	-11.7214
▁fled	-11.7217
226	-11.722
▁vat	-11.7222
▁geo	-11.7223
▁آوریم	-11.7225
▁owe	-11.7227
dding	-11.7227
▁reservations	-11.7228
▁gall	-11.723
▁compar	-11.7233
▁بانکدار	-11.7245
▁cub	-11.7246
▁گواه	-11.7254
315	-11.726
▁fans	-11.7261
▁phil	-11.7263
▁prospect	-11.7265
▁dollar	-11.7265
▁participant	-11.7265
▁پالم	-11.7271
سفر	-11.7274
▁demo	-11.7274
cade	-11.7277
day	-11.728
641	-11.7285
▁هموار	-11.7287
▁analyze	-11.7301
held	-11.7305
یقه	-11.7306
you	-11.731
▁جاودان	-11.731
that	-11.7335
▁guilt	-11.7339
599	-11.7346
▁loyal	-11.7348
▁stead	-11.7348
▁accompany	-11.7348
▁cinema	-11.7348
▁coffin	-11.7348
▁eggshells	-11.7348
▁expensive	-11.7348
▁explore	-11.7348
▁persecution	-11.7348
▁recognise	-11.7348
▁segment	-11.7348
▁shepherd	-11.7348
▁suspicion	-11.7348
▁wretch	-11.7348
▁اورلاندو	-11.7348
▁ریچموند	-11.7348
▁شطرنج	-11.7348
▁فئودور	-11.7348
▁فاضلاب	-11.7348
▁لوئیس	-11.7348
▁متذکر	-11.7348
▁ملموس	-11.7348
▁نگذاشت	-11.7348
▁venue	-11.7348
▁تحریف	-11.7348
▁مسلط	-11.7348
▁gender	-11.7348
▁melanie	-11.7348
▁آداب	-11.7348
▁تجلی	-11.7348
▁orlando	-11.7348
▁رعد	-11.7348
▁مفاد	-11.7348
▁magnificent	-11.7348
▁panoram	-11.7348
▁استعفا	-11.7348
▁vulnerab	-11.7348
▁آسایش	-11.7348
▁بیولوژیک	-11.7348
▁خردمند	-11.7349
▁acquaintance	-11.7349
▁thomas	-11.7349
▁spoil	-11.7349
▁sweat	-11.7349
▁مدعی	-11.7349
▁organs	-11.7349
▁loyalty	-11.7349
▁biological	-11.7349
▁sovereignty	-11.7349
▁morrow	-11.7349
▁weird	-11.7349
▁indoor	-11.735
▁alexey	-11.735
▁brass	-11.7351
▁چرخاند	-11.7351
108	-11.7351
▁loop	-11.7351
▁بلوط	-11.7352
▁liability	-11.7352
▁manifestation	-11.7352
▁charity	-11.7352
▁measurement	-11.7352
▁adjustment	-11.7352
▁همسایگان	-11.7352
▁clever	-11.7352
▁massage	-11.7353
▁شریر	-11.7353
▁seventy	-11.7354
▁دانیال	-11.7354
▁rear	-11.7354
▁جورایی	-11.7354
▁حسابداری	-11.7355
▁healing	-11.7356
▁artistic	-11.7356
maker	-11.7356
▁مهاجران	-11.7357
▁چندلر	-11.7359
▁decent	-11.7359
▁دستمال	-11.7359
▁deriv	-11.7359
▁wow	-11.7362
▁demonstrated	-11.7362
بایل	-11.7362
▁sixth	-11.7363
▁سریال	-11.7363
▁riches	-11.7364
▁consul	-11.7364
▁بردارد	-11.7365
▁اساسنامه	-11.7366
▁appreciated	-11.7369
▁گرند	-11.737
▁handling	-11.7372
▁executed	-11.7373
▁117	-11.7375
▁بازیگر	-11.7376
▁نتوانستند	-11.7376
▁فعالانه	-11.7377
lift	-11.738
▁lee	-11.7385
▁hip	-11.7389
uit	-11.7393
▁چرمی	-11.7393
iel	-11.7393
▁restrain	-11.7394
▁توافقات	-11.7399
طس	-11.74
▁دادید	-11.7402
▁garments	-11.7405
▁placement	-11.7406
▁gloves	-11.7407
▁exchanged	-11.7409
▁1986	-11.7414
▁beans	-11.7415
▁408	-11.7415
▁strain	-11.7417
▁مونته	-11.7419
▁1985	-11.7422
▁buck	-11.7423
ژان	-11.7432
▁ماهانه	-11.7433
▁1983	-11.7433
روس	-11.7438
600	-11.7453
▁دیدیم	-11.7454
▁drain	-11.7457
hipping	-11.7461
not	-11.7461
▁patterns	-11.7462
▁vine	-11.7464
▁applying	-11.7466
▁divisions	-11.7469
hran	-11.7472
گاس	-11.7473
▁yard	-11.7479
▁سرب	-11.7483
▁savings	-11.7486
▁dull	-11.7487
▁painful	-11.7491
▁گاوها	-11.7495
▁finishing	-11.7503
gotten	-11.7503
▁گلن	-11.7505
▁drag	-11.7511
▁tap	-11.7515
327	-11.7526
▁کاردی	-11.7526
ibility	-11.7532
▁provider	-11.7537
جویی	-11.7541
▁222	-11.7544
aware	-11.7548
dale	-11.7549
▁commun	-11.755
▁opponent	-11.755
▁passenger	-11.755
▁obligation	-11.755
▁instruction	-11.7552
▁complaint	-11.7556
hem	-11.7558
▁rio	-11.7561
وژ	-11.7564
▁wan	-11.7566
384	-11.7566
▁gap	-11.7572
▁ruler	-11.7576
▁لیو	-11.7582
▁جف	-11.7597
▁weigh	-11.7599
oud	-11.76
▁محسو	-11.7601
▁renew	-11.7604
▁prohibit	-11.7606
▁فق	-11.7619
▁react	-11.7625
▁motivat	-11.7626
▁zi	-11.7627
▁پسرانش	-11.763
▁superior	-11.7632
▁almighty	-11.7634
▁applicable	-11.7634
▁argentina	-11.7634
▁beneath	-11.7634
▁bicycle	-11.7634
▁choosing	-11.7634
▁compensation	-11.7634
▁cooperate	-11.7634
▁creativity	-11.7634
▁elbow	-11.7634
▁equity	-11.7634
▁kremlin	-11.7634
▁muttered	-11.7634
▁netherlands	-11.7634
▁odessa	-11.7634
▁physician	-11.7634
▁poison	-11.7634
▁qualification	-11.7634
▁rehabilitation	-11.7634
▁shanghai	-11.7634
▁transnistria	-11.7634
▁tunnel	-11.7634
▁اسپرینگز	-11.7634
▁اعزام	-11.7634
▁اعصاب	-11.7634
▁اقلیت	-11.7634
▁تسخیر	-11.7634
▁حرکات	-11.7634
▁سانفرانسیسکو	-11.7634
▁سوابق	-11.7634
▁متفکر	-11.7634
▁مزخرف	-11.7634
▁مقادیر	-11.7634
▁مقاصد	-11.7634
▁مکتوب	-11.7634
▁ناخودآگاه	-11.7634
▁پروفسور	-11.7634
▁پیکربندی	-11.7634
▁architectural	-11.7634
▁atlantic	-11.7634
▁genuine	-11.7634
▁injured	-11.7634
▁optimal	-11.7634
▁رادیکال	-11.7634
▁migrant	-11.7634
▁reckon	-11.7634
▁zhamb	-11.7634
▁موآب	-11.7634
▁اسکله	-11.7634
▁جنایی	-11.7634
▁خونسرد	-11.7634
▁نمودار	-11.7634
▁عقید	-11.7634
▁patent	-11.7634
▁پردازد	-11.7634
▁timetable	-11.7634
▁قلاب	-11.7634
▁تجدیدنظر	-11.7634
▁فرستند	-11.7634
▁nominal	-11.7634
▁canyon	-11.7634
▁disabilities	-11.7634
▁pardon	-11.7634
▁مجرد	-11.7635
▁دوگانه	-11.7635
▁کرملین	-11.7635
▁input	-11.7635
▁madrid	-11.7635
▁مونتاژ	-11.7635
▁وابستگی	-11.7635
▁dancing	-11.7635
▁ظالم	-11.7635
▁composed	-11.7636
▁robot	-11.7636
▁خل	-11.7636
▁کافر	-11.7636
▁کانکت	-11.7636
▁interpretation	-11.7637
▁fulfillment	-11.7637
▁moab	-11.7638
▁کرایه	-11.7638
▁dump	-11.7638
▁شایان	-11.7638
▁fever	-11.7638
▁favorable	-11.7639
▁bride	-11.764
▁warranty	-11.7641
▁zhol	-11.7641
300	-11.7641
▁ترساند	-11.7641
▁بپرسید	-11.7642
▁jail	-11.7642
▁ناو	-11.7643
▁شکوفا	-11.7643
▁937	-11.7645
▁حکا	-11.7645
▁بزنند	-11.7646
▁لاورو	-11.7649
▁rabbit	-11.7649
▁شناسند	-11.765
▁تیپ	-11.765
▁overthrow	-11.7651
▁lithuanian	-11.7655
▁cock	-11.7655
▁justify	-11.7656
▁خوای	-11.7657
▁sochi	-11.7657
ular	-11.7661
▁solved	-11.7663
▁شنوی	-11.7663
▁سپاسگزارم	-11.7664
▁upset	-11.7664
osh	-11.7665
▁disappeared	-11.7666
▁mist	-11.7669
▁advise	-11.767
333	-11.7671
▁نمادهای	-11.7671
▁خودروهای	-11.7673
▁مادرید	-11.7673
▁جاودانه	-11.7674
▁نشدند	-11.7676
▁متنفرم	-11.7678
▁اسپری	-11.7683
▁1989	-11.7689
▁sincere	-11.769
▁decades	-11.7692
▁هیات	-11.7693
▁پلاستیکی	-11.7694
▁scriptures	-11.7699
لتون	-11.7704
▁disco	-11.7709
▁پارس	-11.7714
▁filling	-11.7714
320	-11.7715
▁substances	-11.7717
رتل	-11.7717
عده	-11.7718
▁opponents	-11.7719
▁پتر	-11.773
▁flames	-11.7736
▁monthly	-11.7738
▁habits	-11.7746
▁wondering	-11.7747
▁954	-11.7754
▁perspectives	-11.7756
▁idol	-11.7757
chem	-11.776
▁apr	-11.7764
lung	-11.7767
rum	-11.777
▁بشه	-11.777
▁پز	-11.7771
▁تله	-11.7773
ناک	-11.7781
ادید	-11.7792
▁mum	-11.7795
▁regulat	-11.7795
▁persia	-11.7796
رسون	-11.7798
▁سوچ	-11.78
▁tested	-11.7803
▁988	-11.7807
ather	-11.7807
tom	-11.7811
▁pie	-11.7818
▁جاهای	-11.7834
▁اجتماع	-11.7834
orku	-11.7836
▁مورل	-11.7836
▁diet	-11.7838
▁بگی	-11.7842
▁miracle	-11.7844
▁substance	-11.7844
▁comrade	-11.7844
phan	-11.7845
▁rail	-11.7847
▁tribe	-11.7847
▁بازرس	-11.785
▁دیوارها	-11.7854
025	-11.786
▁voter	-11.7861
uth	-11.7867
▁journalist	-11.7878
▁plac	-11.7883
bled	-11.7885
الاس	-11.789
▁صحن	-11.789
▁رابط	-11.7891
homa	-11.7892
▁journal	-11.7894
▁distribut	-11.7898
lington	-11.7902
▁لنگ	-11.7903
▁موز	-11.7906
▁رحمان	-11.7909
▁فین	-11.7914
▁خان	-11.7917
▁تانک	-11.7918
under	-11.7923
▁تظاهر	-11.7924
▁collaborat	-11.7925
▁agrarian	-11.7928
▁buffet	-11.7928
▁chandler	-11.7928
▁defect	-11.7928
▁deficit	-11.7928
▁disorder	-11.7928
▁dmitri	-11.7928
▁edition	-11.7928
▁emphasis	-11.7928
▁grandmother	-11.7928
▁keywords	-11.7928
▁microsoft	-11.7928
▁persuade	-11.7928
▁portugal	-11.7928
▁protein	-11.7928
▁replies	-11.7928
▁scenario	-11.7928
▁shield	-11.7928
▁swift	-11.7928
▁transparent	-11.7928
▁trumpet	-11.7928
▁wheat	-11.7928
▁worried	-11.7928
▁آشفتگی	-11.7928
▁امپریالیسم	-11.7928
▁رقبا	-11.7928
▁زودهنگام	-11.7928
▁شایعات	-11.7928
▁ظرافت	-11.7928
▁قانونگذاری	-11.7928
▁نعمت	-11.7928
▁والنسیا	-11.7928
▁ویتنام	-11.7928
▁پانوراما	-11.7928
▁پروتئین	-11.7928
▁orientation	-11.7928
▁prolong	-11.7928
▁بسازد	-11.7928
▁بسازید	-11.7928
▁بپردازم	-11.7928
▁ریچل	-11.7928
▁nowhere	-11.7928
▁screw	-11.7928
▁systematic	-11.7928
▁مساوی	-11.7928
▁tremble	-11.7928
▁مکالم	-11.7928
▁بغل	-11.7928
▁استرداد	-11.7928
▁بقایای	-11.7928
▁suspend	-11.7928
▁supper	-11.7928
▁ناتالی	-11.7928
▁سناریو	-11.7929
▁مخلوق	-11.7929
▁گناهکار	-11.7929
▁snowball	-11.7929
▁basketball	-11.7929
▁برسید	-11.7929
edication	-11.7929
▁اعداد	-11.7929
▁ایراد	-11.7929
▁dramatic	-11.7929
studied	-11.7929
▁lodge	-11.7929
▁imperialism	-11.7929
▁daddy	-11.793
▁chess	-11.793
▁engagement	-11.793
▁concentration	-11.793
▁تایتان	-11.793
▁incredible	-11.793
▁وارث	-11.7931
▁assad	-11.7931
▁darling	-11.7931
▁sarah	-11.7931
▁نادر	-11.7931
▁قدوس	-11.7931
▁کهکشان	-11.7932
▁cream	-11.7932
▁آرتور	-11.7932
▁گذرگاه	-11.7932
▁غریز	-11.7932
▁حسابرسی	-11.7933
ologist	-11.7933
▁dragon	-11.7934
▁تلفات	-11.7934
▁بازرگانان	-11.7934
▁inquire	-11.7934
itude	-11.7935
▁کمیسر	-11.7936
▁الکل	-11.7936
▁محکومیت	-11.7936
▁territories	-11.7936
▁keen	-11.7937
▁بخورید	-11.7937
▁jang	-11.7937
▁trace	-11.7939
▁بپیوندد	-11.794
ovich	-11.7942
▁کینگ	-11.7943
رونق	-11.7946
▁porch	-11.7946
▁صدق	-11.7946
war	-11.795
دید	-11.795
▁reflection	-11.7951
▁celebrated	-11.7952
961	-11.7955
▁facilitat	-11.7959
▁purely	-11.796
ridge	-11.796
▁tech	-11.796
425	-11.7961
▁پیشگوی	-11.7962
▁سردرگمی	-11.7964
▁ریش	-11.7965
▁بخورم	-11.7972
▁عزیزان	-11.7973
▁veterans	-11.798
814	-11.7982
▁دویست	-11.7984
بخش	-11.7995
stand	-11.7995
▁پیوندهای	-11.7998
▁1920	-11.8
▁characteriz	-11.8007
▁painted	-11.801
▁منشی	-11.8012
▁miracles	-11.8013
▁کرک	-11.8014
▁musical	-11.8018
ao	-11.802
▁dynamics	-11.8021
▁yea	-11.8027
گوس	-11.8029
▁blowing	-11.803
▁خوشحالیم	-11.8033
▁سیات	-11.8035
hai	-11.8038
ادین	-11.8049
▁بیکار	-11.805
▁تپ	-11.8062
▁gaz	-11.8064
▁singer	-11.8071
754	-11.8079
280	-11.8084
417	-11.809
▁کوتو	-11.8108
inning	-11.8115
▁shew	-11.8115
▁nest	-11.812
▁pad	-11.8131
▁اتو	-11.8133
▁خداحافظ	-11.8136
▁khan	-11.8138
▁دزدید	-11.814
▁گلوی	-11.8145
▁impose	-11.8152
▁فلز	-11.8153
▁dwel	-11.8153
▁gay	-11.8155
▁baker	-11.8157
▁بروز	-11.8158
▁گردنش	-11.8166
▁achiev	-11.8177
▁افزودن	-11.8178
▁sham	-11.8179
زوف	-11.8181
عادی	-11.8184
▁breathe	-11.8188
▁نظامیان	-11.8189
▁tape	-11.8193
▁دفع	-11.8193
▁وقف	-11.8194
▁اندازهای	-11.8198
▁correspond	-11.8201
▁jer	-11.8205
▁415	-11.8213
▁precise	-11.8218
▁طاق	-11.8221
soever	-11.8223
▁پارامتر	-11.8224
▁attribut	-11.8226
▁ارتعاش	-11.8226
▁contribut	-11.823
clusion	-11.8231
▁absurd	-11.8231
▁accelerate	-11.8231
▁arizona	-11.8231
▁automated	-11.8231
▁blasphem	-11.8231
▁chariot	-11.8231
▁charlie	-11.8231
▁enlighten	-11.8231
▁hurried	-11.8231
▁karaganda	-11.8231
▁modified	-11.8231
▁observation	-11.8231
▁pakistan	-11.8231
▁pavlodar	-11.8231
▁pilate	-11.8231
▁plenipotentiary	-11.8231
▁qualities	-11.8231
▁strategies	-11.8231
▁struggling	-11.8231
▁surprising	-11.8231
▁tactics	-11.8231
▁transparency	-11.8231
▁trembling	-11.8231
▁tremendous	-11.8231
▁unnecessary	-11.8231
▁valencia	-11.8231
▁آریزونا	-11.8231
▁رطوبت	-11.8231
▁سودآور	-11.8231
▁ضخامت	-11.8231
▁ضیافت	-11.8231
▁مایکروسافت	-11.8231
▁متعادل	-11.8231
▁نامطلوب	-11.8231
▁ولنتاین	-11.8231
▁کاریکاتور	-11.8231
▁nomination	-11.8231
▁ralph	-11.8231
▁آشفته	-11.8231
▁دمکرات	-11.8231
▁نصف	-11.8231
▁یکنواخت	-11.8231
▁analyse	-11.8231
▁radiation	-11.8231
▁سیستماتیک	-11.8231
▁فرسود	-11.8231
▁lounge	-11.8231
▁frozen	-11.8231
▁شتم	-11.8231
▁expir	-11.8231
▁آنطور	-11.8231
▁سلیقه	-11.8231
▁countess	-11.8232
▁رسال	-11.8232
▁مهاجم	-11.8232
▁saddle	-11.8232
▁slipped	-11.8232
▁اسکورت	-11.8232
▁روزگار	-11.8232
▁continually	-11.8232
▁terminate	-11.8232
▁بازنگر	-11.8232
▁libya	-11.8232
▁dismiss	-11.8232
▁refund	-11.8232
▁liberation	-11.8233
▁مسافرخانه	-11.8233
▁مذک	-11.8233
▁infant	-11.8233
▁permitted	-11.8233
▁brotherhood	-11.8233
▁جواهرات	-11.8233
▁چادر	-11.8233
▁jacket	-11.8234
▁sinned	-11.8234
▁پنیر	-11.8234
▁حفر	-11.8234
▁پاکستان	-11.8235
▁پیتس	-11.8236
305	-11.8237
▁undertaken	-11.8237
▁rice	-11.8237
▁confirmation	-11.8237
تساب	-11.8237
▁liquidation	-11.8237
▁rocket	-11.8238
▁نشدنی	-11.8241
▁معیارهای	-11.8241
▁thoroughly	-11.8242
تحریر	-11.8242
▁christianity	-11.8242
▁فلور	-11.8246
▁والری	-11.8247
▁drilling	-11.8249
▁encouraged	-11.8249
▁austrian	-11.8251
▁louder	-11.8255
▁discovery	-11.8255
▁کتک	-11.8256
▁پلک	-11.8256
▁ذی	-11.8257
▁التحصیلان	-11.8257
▁بخوابم	-11.8257
skiy	-11.8258
▁honestly	-11.8258
▁گانه	-11.8259
▁بشوی	-11.8261
▁کنتس	-11.8263
▁نامشخص	-11.8264
▁emotional	-11.8266
▁آسا	-11.8268
▁guardian	-11.8269
▁جانگ	-11.8271
▁701	-11.828
▁annually	-11.828
▁خلقت	-11.828
▁پوچ	-11.8282
▁emotions	-11.8285
▁دزدان	-11.8285
▁addresses	-11.8286
▁judged	-11.8297
▁پوشیدن	-11.8297
▁افتادند	-11.83
▁kol	-11.8307
bol	-11.8309
▁lap	-11.831
▁washed	-11.8311
▁کوچه	-11.8316
▁welcomed	-11.8319
▁مارات	-11.832
▁716	-11.8321
▁امیر	-11.8322
bru	-11.8334
▁خواهران	-11.8345
▁columbia	-11.8349
▁2019	-11.835
▁انگشتانش	-11.8353
nati	-11.8361
▁stepp	-11.8362
▁ivanov	-11.8364
▁bang	-11.8369
▁541	-11.837
cular	-11.8371
form	-11.8378
646	-11.8381
▁بوم	-11.8382
▁dial	-11.8387
metric	-11.839
▁نشستند	-11.8391
▁آسمانها	-11.8394
▁valentine	-11.8404
illo	-11.8405
▁مسن	-11.8408
▁مشا	-11.8413
ique	-11.8432
ویف	-11.8432
اهی	-11.844
▁درآمدها	-11.8443
اهو	-11.8444
▁استثنا	-11.8449
▁کوهستان	-11.8453
▁vessel	-11.846
▁transaction	-11.846
▁affair	-11.8461
▁refugee	-11.8466
▁needle	-11.8476
▁کالاها	-11.8477
665	-11.8479
fold	-11.8484
wood	-11.8485
▁گویا	-11.8488
khov	-11.8504
▁قرض	-11.8508
▁303	-11.8509
▁execut	-11.851
قدر	-11.8513
▁خوانند	-11.8521
▁بارسلون	-11.8526
▁frequent	-11.853
▁victor	-11.8532
ende	-11.8534
▁jealous	-11.8535
rought	-11.8542
▁disappoint	-11.8542
▁festiv	-11.8543
▁abstract	-11.8544
▁alcohol	-11.8544
▁apparatus	-11.8544
▁applies	-11.8544
▁assassin	-11.8544
▁baptist	-11.8544
▁battery	-11.8544
▁ceasefire	-11.8544
▁challenging	-11.8544
▁emirate	-11.8544
▁explosion	-11.8544
▁fiddle	-11.8544
▁flexible	-11.8544
▁grief	-11.8544
▁impatient	-11.8544
▁inspiration	-11.8544
▁livestock	-11.8544
▁portfolio	-11.8544
▁pursuing	-11.8544
▁saratov	-11.8544
▁tbilisi	-11.8544
▁unemployment	-11.8544
▁upstairs	-11.8544
▁urantia	-11.8544
▁vietnam	-11.8544
▁vocation	-11.8544
▁انتصاب	-11.8544
▁بعدازظهر	-11.8544
▁تاثیرگذار	-11.8544
▁تخصیص	-11.8544
▁تعصب	-11.8544
▁ذراع	-11.8544
▁ردیابی	-11.8544
▁عقاید	-11.8544
▁مایکروویو	-11.8544
▁مخابرات	-11.8544
▁مرخصی	-11.8544
▁مرطوب	-11.8544
▁مشروب	-11.8544
▁ناعادلانه	-11.8544
▁intimate	-11.8544
▁مخرب	-11.8544
▁پرنسس	-11.8544
▁cousin	-11.8544
▁undoubted	-11.8544
▁جلیل	-11.8544
▁داوران	-11.8544
▁چشید	-11.8544
▁sinners	-11.8544
▁cardinal	-11.8544
▁قوچ	-11.8544
▁آشور	-11.8544
▁پرهیز	-11.8544
ورنشیا	-11.8544
▁naked	-11.8544
▁ساراتوف	-11.8544
▁رکود	-11.8544
▁emerge	-11.8544
▁grease	-11.8544
▁ownership	-11.8544
▁یقین	-11.8544
▁fortress	-11.8544
▁نیافت	-11.8544
▁بوسه	-11.8544
▁تقلب	-11.8545
▁impressive	-11.8545
▁seattle	-11.8545
▁separation	-11.8545
▁circulation	-11.8546
▁temptation	-11.8546
▁جوهر	-11.8546
▁کاوش	-11.8546
▁thermal	-11.8546
▁carbon	-11.8546
▁ناچار	-11.8546
▁یتیم	-11.8546
▁accessible	-11.8546
صدیق	-11.8547
▁hearken	-11.8547
▁monster	-11.8547
▁گرامی	-11.8547
▁duration	-11.8548
▁تنبل	-11.8548
▁stuck	-11.8548
▁nearby	-11.8548
▁peak	-11.8548
▁glen	-11.8548
▁ارتعاشات	-11.8549
▁mock	-11.8549
▁زانوهای	-11.855
▁مرگبار	-11.855
▁تونل	-11.8551
▁actors	-11.8552
▁farmers	-11.8552
▁ربات	-11.8556
▁tram	-11.8557
▁بنشیند	-11.8557
▁assigned	-11.8562
▁perfection	-11.8563
▁کنون	-11.8563
▁ترسیدند	-11.8564
▁چانه	-11.8564
▁پوستر	-11.8568
▁interrupted	-11.8569
▁کشش	-11.8571
▁aqua	-11.8571
▁زرا	-11.8572
▁measured	-11.8574
▁abilities	-11.8575
▁undergo	-11.858
▁حیر	-11.858
▁dealt	-11.8582
▁فرستادند	-11.8584
▁cheerful	-11.8589
▁stored	-11.8592
▁tab	-11.8593
▁مغزها	-11.8593
▁dive	-11.8593
mposed	-11.8594
▁stumbl	-11.8596
▁purchased	-11.8597
▁گول	-11.8599
▁ratio	-11.86
▁lawful	-11.8603
▁pc	-11.8603
▁sara	-11.861
▁comply	-11.861
▁419	-11.8613
▁combine	-11.8613
040	-11.8621
▁catching	-11.8623
▁pushed	-11.8623
▁liter	-11.8623
▁const	-11.8624
▁2030	-11.8625
▁1976	-11.8631
▁succeeded	-11.8634
▁consult	-11.8634
310	-11.8634
▁skiing	-11.8643
وفق	-11.8657
▁پویا	-11.8664
▁cometh	-11.8671
ami	-11.8673
گراد	-11.8688
▁روال	-11.8695
▁cardi	-11.8702
▁پترو	-11.8706
fulness	-11.8716
▁tang	-11.8727
▁نحو	-11.8733
▁803	-11.8767
▁karim	-11.877
▁خاکستر	-11.8774
▁رویاها	-11.8775
201	-11.8775
▁characteristic	-11.8783
▁هلن	-11.8794
governmental	-11.8807
▁لیپ	-11.8808
▁rom	-11.8809
▁270	-11.8809
▁aero	-11.8813
▁eh	-11.8818
referred	-11.882
jah	-11.8837
▁promis	-11.8839
کوفسکی	-11.8839
▁نمیخوا	-11.8841
▁نورد	-11.885
کشن	-11.8852
▁بزرگسال	-11.8852
▁apparent	-11.8853
▁trap	-11.8853
▁خادم	-11.8856
▁ایدئولوژی	-11.8856
▁relate	-11.8857
zan	-11.8858
volving	-11.8864
▁indicat	-11.8865
obedience	-11.8866
▁abundance	-11.8866
▁accusation	-11.8866
▁akhmetov	-11.8866
▁cluster	-11.8866
▁cottage	-11.8866
▁cyprus	-11.8866
▁delicious	-11.8866
▁fountain	-11.8866
▁microwave	-11.8866
▁miserable	-11.8866
▁penalty	-11.8866
▁plague	-11.8866
▁puzzle	-11.8866
▁recipient	-11.8866
▁sacrament	-11.8866
▁آلومینیوم	-11.8866
▁احضار	-11.8866
▁انضباط	-11.8866
▁بپردازیم	-11.8866
▁تشریح	-11.8866
▁خنثی	-11.8866
▁رقیب	-11.8866
▁سحر	-11.8866
▁وسعت	-11.8866
▁پژوهش	-11.8866
▁کبیر	-11.8866
▁fiscal	-11.8866
▁neglect	-11.8866
▁reconcil	-11.8866
▁warehouse	-11.8866
▁استثمار	-11.8866
▁بصری	-11.8866
▁سیزده	-11.8866
▁کاتولیک	-11.8866
▁wilt	-11.8866
▁پادگان	-11.8866
magnetic	-11.8866
▁austin	-11.8866
▁کازینو	-11.8866
▁ترفند	-11.8866
▁کاندیدا	-11.8866
▁قریب	-11.8866
▁aviation	-11.8867
▁کربن	-11.8867
▁forbidden	-11.8867
▁frown	-11.8867
▁confusion	-11.8867
▁جهات	-11.8867
▁خلبان	-11.8867
▁discern	-11.8867
▁excessive	-11.8867
▁banned	-11.8867
▁rival	-11.8867
▁fleet	-11.8867
▁slope	-11.8867
▁deepening	-11.8867
▁فرنگی	-11.8867
▁arrow	-11.8868
▁expertise	-11.8868
▁governance	-11.8868
▁stylis	-11.8868
▁mamma	-11.8868
▁motive	-11.8868
▁harmful	-11.8868
▁victoria	-11.8869
▁testify	-11.8869
▁zinc	-11.8869
▁ایزابل	-11.8869
▁سناتور	-11.8869
784	-11.8869
▁صفوف	-11.8869
▁handsome	-11.887
▁پاشید	-11.887
▁junior	-11.887
▁dumb	-11.887
▁zero	-11.887
▁quest	-11.8871
▁همتای	-11.8871
▁vow	-11.8871
لوقا	-11.8872
▁دروغگو	-11.8873
▁ببوس	-11.8873
▁بنویسید	-11.8873
▁equality	-11.8875
▁بیندازد	-11.8877
▁documentation	-11.8877
▁1975	-11.8878
▁پایش	-11.8878
▁نرود	-11.8879
▁رومیان	-11.8879
▁کوپن	-11.888
▁refrain	-11.8882
▁ceased	-11.8883
▁بکشند	-11.8884
shot	-11.8885
306	-11.889
▁eaten	-11.889
▁بمان	-11.8893
▁opposed	-11.8893
▁novel	-11.8895
▁politicians	-11.8896
▁پنل	-11.8896
▁هوم	-11.8897
▁greed	-11.8897
▁مانور	-11.8898
▁ignored	-11.8899
▁تشن	-11.8902
▁امارات	-11.8902
▁bern	-11.8904
▁جامد	-11.8908
▁بکار	-11.8909
▁gre	-11.8913
▁peculiar	-11.8913
▁سموئ	-11.8913
▁beaches	-11.8913
صول	-11.8915
▁hiding	-11.8917
▁هنرهای	-11.892
oi	-11.8931
▁jerk	-11.894
▁تاثیرات	-11.8952
▁نیکول	-11.8958
964	-11.8964
▁3000	-11.8965
▁214	-11.8966
▁آتا	-11.8976
▁logical	-11.8977
imov	-11.8981
▁عمد	-11.8982
apped	-11.8988
آباد	-11.8997
▁ampl	-11.8998
632	-11.9007
zek	-11.9008
▁ناخ	-11.9008
urged	-11.9009
نویسی	-11.9025
▁fog	-11.9028
▁گلو	-11.9029
▁clo	-11.9037
▁کنگ	-11.9043
▁thankful	-11.9043
نیوم	-11.9048
▁tara	-11.906
یکات	-11.9065
▁313	-11.9066
▁منطق	-11.9067
▁برادرت	-11.9069
▁ادا	-11.9076
▁205	-11.9089
▁جزو	-11.9102
▁زیرزمین	-11.9105
▁فیزیک	-11.9105
▁جزئ	-11.9112
▁bolshevik	-11.9116
▁فهمی	-11.9118
▁rang	-11.9138
▁طلبان	-11.914
piece	-11.914
راج	-11.9155
▁info	-11.9158
▁pav	-11.9158
▁ولگ	-11.9161
▁assembl	-11.9163
zen	-11.9165
▁oppos	-11.9169
▁logo	-11.917
oul	-11.917
▁frighten	-11.9172
▁خیل	-11.9175
▁convict	-11.9178
[...]
